{
  "</s>": 0,
  "<unk>": 1,
  ",": 2,
  "\u2581the": 3,
  ".": 4,
  "\u2581,": 5,
  "\u2581": 6,
  "\u2581\u306e": 7,
  "\u2581and": 8,
  "\u2581of": 9,
  "\u2581\u306b": 10,
  "\u2581\u306f": 11,
  "\u2581\u3092": 12,
  "\u2581.": 13,
  "\u2581to": 14,
  "\u2581\u3066": 15,
  "\u2581\u305f": 16,
  "\u2581\u3044": 17,
  "\u2581\u308b": 18,
  "\u2581\u3067": 19,
  "\u2581in": 20,
  "\u2581\u3063": 21,
  "\u2581\u3068": 22,
  "\u2581\u306a": 23,
  "\u2581\u304c": 24,
  "\u2581that": 25,
  ";": 26,
  "\u2581\"": 27,
  "\u2581shal": 28,
  "l": 29,
  "\u2581he": 30,
  "\u2581I": 31,
  ":": 32,
  "\u2581a": 33,
  "\u2581his": 34,
  "\u2581\u3057": 35,
  "\u2581you": 36,
  "\u2581\u3042\u306a\u305f": 37,
  "\u2581\u3042": 38,
  "\u2581\u3089": 39,
  "\u2581for": 40,
  "\u2581\u308f\u305f\u3057": 41,
  "\u2581is": 42,
  "\u2581\u305d\u306e": 43,
  "\u2581be": 44,
  "\u2581him": 45,
  "\u2581And": 46,
  "\u2581they": 47,
  "\u2581with": 48,
  "\u2581them": 49,
  "\u2581\u5f7c": 50,
  "\u2581it": 51,
  "\u2581will": 52,
  "\u2581all": 53,
  "\u2581not": 54,
  "\u2581\u308c": 55,
  "\u2581unto": 56,
  "\u2581was": 57,
  "\u2581your": 58,
  "\u2581my": 59,
  "\u2581have": 60,
  "\u2581\u3082": 61,
  "'": 62,
  "\u2581me": 63,
  "\u2581God": 64,
  "\u2581\u8005": 65,
  "\u2581said": 66,
  "\u2581\u3046": 67,
  ".\"": 68,
  "\u2581their": 69,
  "\u2581\u8a00": 70,
  "\u2581from": 71,
  "\u2581\u304b\u3089": 72,
  "\u2581which": 73,
  "\u2581\u4e3b": 74,
  "\u2581who": 75,
  "s": 76,
  "\u2581Yahweh": 77,
  "\u2581LORD": 78,
  "\u2581on": 79,
  "\u2581\u307e\u305f": 80,
  "\u2581are": 81,
  "\u306f": 82,
  "\u2581\u3053\u3068": 83,
  "\u2581\u304b": 84,
  "\u2581\u4eba": 85,
  "\u2581as": 86,
  "\u2581\u3088": 87,
  "\u3068": 88,
  "\u2581out": 89,
  "\u2581\u304d": 90,
  "\u2581\u305f\u3061": 91,
  "\u306e": 92,
  "\u2581\u304f": 93,
  "\u2581\u3088\u3046": 94,
  "t": 95,
  "?": 96,
  "\u2581were": 97,
  "\u3092": 98,
  "\u2581\u3059": 99,
  "\u2581The": 100,
  "\u2581Israel": 101,
  "\u2581\u795e": 102,
  "\u304c": 103,
  "\u2581\u304c\u305f": 104,
  "\u2581by": 105,
  "\u2581man": 106,
  "\u2581king": 107,
  ",\"": 108,
  "\u2581thou": 109,
  "\u2581this": 110,
  "\u2581up": 111,
  "\u2581\u3055": 112,
  "\u2581but": 113,
  "\u2581\u308a": 114,
  "\u306b": 115,
  "\u2581thy": 116,
  "\u2581\u307e": 117,
  "\u2581\u3053\u308c": 118,
  "\u2581son": 119,
  "\u2581when": 120,
  "\u2581had": 121,
  "\u2581\u308f": 122,
  "\u2581people": 123,
  "\u2581one": 124,
  "\u2581there": 125,
  "\u2581house": 126,
  "\u2581into": 127,
  "\u2581\u305d\u308c": 128,
  "\u2581\u3070": 129,
  "\u2581came": 130,
  "\u2581\u305b": 131,
  "\u2581He": 132,
  "\u2581thee": 133,
  "\u2581her": 134,
  "\u2581ye": 135,
  "\u2581\u884c": 136,
  "\u2581children": 137,
  "\u2581For": 138,
  "\u2581\u3093": 139,
  "\u2581\u5b50": 140,
  "\u2581\u3053\u306e": 141,
  "\u2581\u305f\u3081": 142,
  "\u2581before": 143,
  "\u2581land": 144,
  "\u2581day": 145,
  "\u2581come": 146,
  "\u2581\u3089\u308c": 147,
  "\u2581\u3060": 148,
  "\u2581men": 149,
  "\u2581against": 150,
  "\u2581\u738b": 151,
  "\u2581we": 152,
  "\u2581\u3059\u308b": 153,
  "\u2581also": 154,
  "\u2581at": 155,
  "\u2581\u3057\u304b\u3057": 156,
  "\u2581But": 157,
  "\u305f": 158,
  "\u2581\u3059\u3079\u3066": 159,
  "\u2581do": 160,
  "\u2581hand": 161,
  "\u2581us": 162,
  "\u2581made": 163,
  "\u2581\u305d\u3057\u3066": 164,
  "\u2581no": 165,
  "\u2581\u308d": 166,
  "\u2581upon": 167,
  "\u2581went": 168,
  "\u2581saying": 169,
  "\u2581\u30a4\u30b9\u30e9\u30a8\u30eb": 170,
  "\u2581an": 171,
  "\u2581has": 172,
  "\u2581\u3064": 173,
  "\u305d\u306e": 174,
  "\u2581go": 175,
  "\u2581\u304a": 176,
  "\u2581\u898b": 177,
  "\u3066": 178,
  "ing": 179,
  "\u2581did": 180,
  "\u2581Then": 181,
  "\u2581\u5730": 182,
  "\u2581even": 183,
  "\u2581\u4eba\u3005": 184,
  "n": 185,
  "\u2581may": 186,
  "\u2581things": 187,
  "\u2581down": 188,
  "\u2581our": 189,
  "\u2581hath": 190,
  "\u2581\u3082\u306e": 191,
  "\u2581sons": 192,
  "\u2581David": 193,
  "\u2581They": 194,
  "\u2581Lord": 195,
  "\u2581so": 196,
  "\u2581\u6c11": 197,
  "\u2581\u3059\u306a\u308f\u3061": 198,
  "\u2581because": 199,
  "\u2581\u6642": 200,
  "\u2581or": 201,
  "\u2581over": 202,
  "ed": 203,
  "\u2581let": 204,
  "\u2581if": 205,
  "\u3082": 206,
  "\u2581\u65e5": 207,
  "\u2581these": 208,
  "\u2581\u306a\u3055": 209,
  "\u2581Jesus": 210,
  "\u2581make": 211,
  "\u2581after": 212,
  "\u2581earth": 213,
  "\u2581\u305d\u3053": 214,
  "\u304b\u3089": 215,
  "\u2581\u30a4\u30a8\u30b9": 216,
  "\u2581father": 217,
  "\u2581away": 218,
  "\u2581every": 219,
  "\u2581name": 220,
  "\"": 221,
  "\u3067": 222,
  "\u2581great": 223,
  "\u2581\u3046\u3061": 224,
  "\u2581put": 225,
  "\u2581\u524d": 226,
  "\u2581those": 227,
  "\u2581like": 228,
  "\u308b": 229,
  "\u2581among": 230,
  "\u2581\u3051\u308c": 231,
  "\u2581\u4e0a": 232,
  "\u307e\u305f": 233,
  "\u2581\u81ea\u5206": 234,
  "\u2581days": 235,
  "\u308a": 236,
  "\u2581brought": 237,
  "\u2581city": 238,
  "\u2581am": 239,
  "\u2581Moses": 240,
  "\u2581know": 241,
  "\u2581\u4e00": 242,
  "\u2581\u624b": 243,
  "\u2581heart": 244,
  "\u2581Judah": 245,
  "\u2581say": 246,
  "\u2581she": 247,
  "\u2581give": 248,
  "\u304b\u3063": 249,
  "\u2581Jerusalem": 250,
  "\u2581then": 251,
  "\u3067\u3042\u308b": 252,
  "\u2581two": 253,
  "\u2581\u3080": 254,
  "\u2581\u5bb6": 255,
  "\u2581\u308f\u308c\u308f\u308c": 256,
  "\u2581any": 257,
  "\u2581\u51fa": 258,
  "\u2581place": 259,
  "\u2581offering": 260,
  "\u3088": 261,
  "\u2581according": 262,
  "\u2581took": 263,
  "\u2581\u6240": 264,
  "\u2581whom": 265,
  "\u2581\u308f\u304c": 266,
  "\u2581take": 267,
  "\u2581therefore": 268,
  "\u2581bring": 269,
  "\u2581forth": 270,
  "\u2581nor": 271,
  "\u304f\u3060\u3055": 272,
  "\u2581Now": 273,
  "\u3044": 274,
  "\u2581way": 275,
  "\u2581\u307f": 276,
  "\u2581neither": 277,
  "\u2581what": 278,
  "-": 279,
  "\u307e\u3067": 280,
  "\u2581\u3073": 281,
  "\u2581should": 282,
  "\u2581\u300e": 283,
  "\u308f\u305f\u3057\u306f": 284,
  "\u2581good": 285,
  "d": 286,
  "\u2581set": 287,
  "\u2581\u3053\u3046": 288,
  "\u2581\u3082\u3057": 289,
  "\u2581sent": 290,
  "\u2581word": 291,
  "\u2581\u805e": 292,
  "\u4e0e\u3048": 293,
  "\u3057": 294,
  "\u2581\u3067\u304d": 295,
  "\u2581\u4e8b": 296,
  "\u2581more": 297,
  "\u2581\u5fc3": 298,
  "\u2581\u77e5": 299,
  "\u2581its": 300,
  "\u2581\u4e2d": 301,
  "\u2581O": 302,
  "\u2581\u8a00\u8449": 303,
  "\u2581\u300f": 304,
  "\u2581When": 305,
  "\u2581You": 306,
  "\u2581So": 307,
  "\u2581behold": 308,
  "\u2581heard": 309,
  "\u2581saith": 310,
  "\u2581\u306a\u3089": 311,
  "\u2581'": 312,
  "\u2581\u304a\u3088\u3073": 313,
  "\u2581now": 314,
  "!": 315,
  "\u2581Egypt": 316,
  "\u2581evil": 317,
  "\u304b": 318,
  "\u2581time": 319,
  "\u2581\u30c0\u30d3\u30c7": 320,
  "\u2581see": 321,
  "\u2581It": 322,
  "\u2581\u305a": 323,
  "\u2581eat": 324,
  "\u2581own": 325,
  "\u2581\u7236": 326,
  "\u2581called": 327,
  "\u2581hundred": 328,
  "\u2581saw": 329,
  "\u2581\u3058": 330,
  "\u2581\u5171": 331,
  "\u30fb": 332,
  "\u2581where": 333,
  "\u2581Christ": 334,
  "\u2581again": 335,
  "\u304d": 336,
  "\u2581fathers": 337,
  "\u2581done": 338,
  "\u2581words": 339,
  "\u2581\u308f\u305f\u3057\u306f": 340,
  "\u2581fire": 341,
  "\u2581years": 342,
  "\u2581Behold": 343,
  "\u2581priest": 344,
  "\u2581himself": 345,
  "\u8a00\u3063\u305f": 346,
  "eth": 347,
  "\u2581about": 348,
  "\u2581hast": 349,
  "\u2581says": 350,
  "\u2581pass": 351,
  "\u2581many": 352,
  "\u2581\u540d": 353,
  "\u2581servant": 354,
  "\u2581eyes": 355,
  "\u2581gave": 356,
  "\u2581\u5f7c\u3089\u306f": 357,
  "\u2581Therefore": 358,
  "\u2581would": 359,
  "\u2581\u753a": 360,
  "\u2581thousand": 361,
  "\u3042\u306a\u305f\u306e": 362,
  "\u2581through": 363,
  "\u2581\u4e3b\u306b": 364,
  "\u2581\u547d": 365,
  "\u2581\u796d\u53f8": 366,
  "\u2581\u6b7b": 367,
  "\u2581\u30e6\u30c0": 368,
  "\u2581voice": 369,
  "\u2581\u76ee": 370,
  "\u2581answered": 371,
  "\u2581off": 372,
  "\u2581If": 373,
  "\u2581servants": 374,
  "\u2581given": 375,
  "th": 376,
  "\u2581\u3068\u304d": 377,
  "\u2581gold": 378,
  "\u2581holy": 379,
  "\u2581yet": 380,
  "\u2581law": 381,
  "\u2581than": 382,
  "\u2581together": 383,
  "\u2581\u7f6a": 384,
  "\u2581life": 385,
  "\u2581\u4e8c": 386,
  "\u2581might": 387,
  "\u2581\u3057\u3087": 388,
  "\u306a\u3055\u3044": 389,
  "\u2581\u3079": 390,
  "\u2581three": 391,
  "\u2581\u56fd": 392,
  "\u2581\u3078": 393,
  "\u2581\u7acb": 394,
  "\u2581\u30e2\u30fc\u30bb": 395,
  "\u2581A": 396,
  "\u2581commanded": 397,
  "\u2581blood": 398,
  "\u2581thine": 399,
  "\u2581thing": 400,
  "\u2581cities": 401,
  "\u2581work": 402,
  "\u2581hands": 403,
  "\u2581\u3072\u3068\u308a": 404,
  "\u2581\u3068\u3053\u308d": 405,
  "\u2581heaven": 406,
  "\u2581\u3086\u3048": 407,
  "\u2581thereof": 408,
  "\u2581sin": 409,
  "\u3063\u305f": 410,
  "\u2581unti": 411,
  ",\u300e": 412,
  "\u2581another": 413,
  "?\"": 414,
  "\u2581\u3055\u3055\u3052": 415,
  "\u2581\u5973": 416,
  "\u2581Let": 417,
  "\u3042\u306a\u305f\u306f": 418,
  "\u2581soul": 419,
  "\u2581seven": 420,
  "\u2581\u30a8\u30eb\u30b5\u30ec\u30e0": 421,
  "\u2581other": 422,
  "\u304f": 423,
  "\u304a\u3088\u3073": 424,
  "\u2581speak": 425,
  "\u2581\u3060\u308c": 426,
  "\u2581sword": 427,
  "\u2581been": 428,
  "\u2581nations": 429,
  "\u2581\u5144\u5f1f": 430,
  "\u2581first": 431,
  "\u308f\u305f\u3057": 432,
  "\u30c6": 433,
  "\u2581cause": 434,
  "\u2581Saul": 435,
  "\u2581found": 436,
  "\u3063\u3066": 437,
  "\u2581mouth": 438,
  "\u5b50\u5b6b": 439,
  "\u3053\u308c\u3092": 440,
  "\u2581In": 441,
  "\u2581wife": 442,
  "\u2581side": 443,
  "\u2581hear": 444,
  "\u2581brother": 445,
  "\u2581\u5e30": 446,
  "\u2581\u6bba": 447,
  "\u2581face": 448,
  "\u2581cast": 449,
  "\u2581tell": 450,
  "\u2581themselves": 451,
  "\u2581don": 452,
  "\u2581\u3082\u308d\u3082\u308d": 453,
  "\u2581priests": 454,
  "\u2581old": 455,
  "\u2581keep": 456,
  "\u2581water": 457,
  "\u2581flesh": 458,
  "\u2581under": 459,
  "\u2581peace": 460,
  "\u2581glory": 461,
  "\u2581head": 462,
  "\u2581\u30a8\u30b8\u30d7\u30c8": 463,
  "\u300f": 464,
  "\u2581\u53d6": 465,
  "\u2581Jacob": 466,
  "\u2581death": 467,
  "\u2581sea": 468,
  "\u2581\u3069\u3046": 469,
  "\u2581\u3084": 470,
  "\u2581right": 471,
  "\u2581altar": 472,
  "\u3073\u3068": 473,
  "\u2581bread": 474,
  "\u2581\u9053": 475,
  "\u2581Thus": 476,
  "\u2581year": 477,
  "\u2581\u5341": 478,
  "\u2581\u9593": 479,
  "\u3053\u306e": 480,
  "\u3067\u3042\u308d\u3046": 481,
  "\u2581midst": 482,
  "\u2581dead": 483,
  "\u2581\u7269": 484,
  "\u304b\u3089\u3067\u3042\u308b": 485,
  "\u306e\u305f\u3081\u306b": 486,
  "\u2581\u5f7c\u5973": 487,
  "\u2581\u305d\u3053\u3067": 488,
  "\u2581\u5f7c\u306f": 489,
  "\u2581\u307f\u306a": 490,
  "\u308f\u305f\u3057\u306e": 491,
  "\u2581\u4f4f": 492,
  "\u2581high": 493,
  "\u2581toward": 494,
  "\u306a\u3051\u308c\u3070\u306a\u3089\u306a\u3044": 495,
  "\u2581without": 496,
  "\u2581\u4e0b": 497,
  "\u2581\u5929": 498,
  "\u2581\u305d\u3046": 499,
  "\u2581woman": 500,
  "\u2581drink": 501,
  "\u2581left": 502,
  "\u2581\u8a9e": 503,
  "\u2581burnt": 504,
  "\u2581\u60aa": 505,
  "\u2581\u5bae": 506,
  "\u2581can": 507,
  "\u2581mine": 508,
  "\u306e\u3067": 509,
  "\u3042\u306a\u305f": 510,
  "\u2581how": 511,
  "\u2581Aaron": 512,
  "\u2581\u3042\u306a\u305f\u306f": 513,
  "\u2581\u5e74": 514,
  "\u2581\u5f97": 515,
  "\u305d\u308c\u3092": 516,
  "\u3042\u306a\u305f\u304c\u305f\u306f": 517,
  "y": 518,
  "\u6765\u308b": 519,
  "\u2581cut": 520,
  "\u3057\u305f": 521,
  "\u2581This": 522,
  "\u2581\u6c34": 523,
  "\u2581\u9810\u8a00": 524,
  "\u2581dwell": 525,
  "\u2581kings": 526,
  "\u2581\u6050\u308c": 527,
  "\u306a": 528,
  "\u2581\u3055\u3066": 529,
  "\u2581\u4e09": 530,
  "\u2581both": 531,
  "\u2581\u9577": 532,
  "\u2581\u30ad\u30ea\u30b9\u30c8": 533,
  "\u2581love": 534,
  "\u2581young": 535,
  "\u2581stood": 536,
  "\u2581fear": 537,
  "\u2581wicked": 538,
  "\u2581\u98df\u3079": 539,
  "\u2581taken": 540,
  "\u2581sight": 541,
  "\u2581As": 542,
  "\u2581daughter": 543,
  "\u2581\u611b": 544,
  "\u2581end": 545,
  "\u2581mother": 546,
  "\u2581silver": 547,
  "\u2581\u4eca": 548,
  "\u2581\u5b88": 549,
  "\u307f": 550,
  "\u2581same": 551,
  "se": 552,
  "\u306b\u8a00\u3063\u305f": 553,
  "\u2581\u3055\u305b": 554,
  "\u2581\u7b54\u3048": 555,
  "\u2581die": 556,
  "\u2581four": 557,
  "\u2581\u982d": 558,
  "\u2581All": 559,
  "\u2581righteousness": 560,
  "\u2581\u53d7\u3051": 561,
  "\u2581\u8eab": 562,
  "\u2581Solomon": 563,
  "I": 564,
  "\u2581\u6551": 565,
  "\u2581covenant": 566,
  "\u2581spirit": 567,
  "\u5f7c\u3089\u306f": 568,
  "\u2581field": 569,
  "\u4eba": 570,
  "\u2581night": 571,
  "\u3059": 572,
  "\u2581There": 573,
  "\u2581spake": 574,
  "\u2581wilderness": 575,
  "\u2581\u6ec5\u307c": 576,
  "\u2581\u5f93": 577,
  "\u2581five": 578,
  "\u2581told": 579,
  "\u2581live": 580,
  "st": 581,
  "\u308f\u305f\u3057\u304c": 582,
  "\u2581spoke": 583,
  "\u2581Thou": 584,
  "\u2581twenty": 585,
  "\u2581Babylon": 586,
  "\u30eb": 587,
  "\u3068\u304a\u308a": 588,
  "\u2581What": 589,
  "\u2581Son": 590,
  "\u2581none": 591,
  "\u2581waters": 592,
  "\u3089": 593,
  "\u2581near": 594,
  "\u2581\u305f\u3060": 595,
  "\u2581\u4e07": 596,
  "\u5f7c": 597,
  "\u2581spoken": 598,
  "\u3088\u3046\u306b": 599,
  "\u8005": 600,
  "\u2581rest": 601,
  "\u2581gate": 602,
  "\u3067\u3042\u3063\u305f": 603,
  "\u2581mighty": 604,
  "\u2581\u4e03": 605,
  "\u2581world": 606,
  "\u2581delivered": 607,
  "\u3057\u3066": 608,
  "\u2581turned": 609,
  "\u3092\u3082\u3063\u3066": 610,
  "\u2581Pharaoh": 611,
  "\u2581Father": 612,
  "\u2581My": 613,
  "\u2581ever": 614,
  "\u2581seen": 615,
  "\u2581being": 616,
  "\u2581does": 617,
  "\u2581\u5a18": 618,
  "\u2581kingdom": 619,
  "\u2581Levites": 620,
  "\u3044\u305f": 621,
  "\u2581offerings": 622,
  "\u3053\u3068\u3092": 623,
  "\u2581written": 624,
  "\u2581\u59bb": 625,
  "\u2581\u3082\u3068": 626,
  "\u3048": 627,
  "\u2581Who": 628,
  "concerning": 629,
  "\u306b\u3088\u3063\u3066": 630,
  "very": 631,
  "\u2581brethren": 632,
  "\u306e\u3088\u3046\u306b": 633,
  "\u2581\u3064\u304b\u308f": 634,
  "\u2581brothers": 635,
  "\u2581\u4f55": 636,
  "\u2581\u5c71": 637,
  "\u2581princes": 638,
  "\u2581laid": 639,
  "\u2581\u5f8c": 640,
  "\u2581seed": 641,
  "\u2581\u307b\u304b": 642,
  "\u2581turn": 643,
  "\u2581\u529b": 644,
  "\u2581light": 645,
  "\u2581much": 646,
  "\u2581feet": 647,
  "\u3084": 648,
  "\u2581gathered": 649,
  "\u2581\u58f0": 650,
  "\u2581stand": 651,
  "\u307e\u3059": 652,
  "\u2581\u3042\u306a\u305f\u304c\u305f\u306f": 653,
  "\u2581\u706b": 654,
  "\u2581righteous": 655,
  "\u2581\u7686": 656,
  "\u2581deliver": 657,
  "\u2581full": 658,
  "\u2581iniquity": 659,
  "\u2581Philistines": 660,
  "\u2581walk": 661,
  "\u3059\u306a\u308f\u3061": 662,
  "\u2581well": 663,
  "\u2581\u544a\u3052": 664,
  "\u2581congregation": 665,
  "\u2581Jews": 666,
  "\u2581power": 667,
  "\u2581\u3057\u3082\u3079": 668,
  "\u2581lord": 669,
  "\u2581month": 670,
  "\u2581chief": 671,
  "\u2581enemies": 672,
  "\u2581\u30e4\u30b3\u30d6": 673,
  "\u306b\u306f": 674,
  "\u2581daughters": 675,
  "\u2581happened": 676,
  "\u2581destroy": 677,
  "\u2581lay": 678,
  "\u2581Do": 679,
  "\u2581\u3053\u3068\u3054\u3068\u304f": 680,
  "\u2581\u6728": 681,
  "\u2581Joseph": 682,
  "\u305a": 683,
  "\u2581thus": 684,
  "\u2581\u6301": 685,
  "\u2581lift": 686,
  "\u2581Spirit": 687,
  "\u2581faith": 688,
  "\u2581\u91d1": 689,
  "\u4e3b\u3088": 690,
  "\u2581offer": 691,
  "\u2581works": 692,
  "\u2581Abraham": 693,
  "\u30de": 694,
  "\u2581some": 695,
  "\u2581multitude": 696,
  "\u2581return": 697,
  "\u306a\u3089\u3070": 698,
  "\u2581\u6b63\u3057": 699,
  "\u2581disciples": 700,
  "\u2581inheritance": 701,
  "\u2581fell": 702,
  "\u2581\u601d": 703,
  "\u2581anger": 704,
  "\u2581(": 705,
  "\u2581\u9580": 706,
  "\u2581whole": 707,
  "\u2581\u5bfe": 708,
  "\u5f7c\u3089": 709,
  "\u2581prophet": 710,
  "\u2581nothing": 711,
  "\u2581prophets": 712,
  "\u2581\u9020": 713,
  "\u2581ten": 714,
  "\u2581\u30b5\u30a6\u30eb": 715,
  "\u3046": 716,
  "\u2581\u9ad8": 717,
  "\u306e\u3067\u3042\u308b": 718,
  "\u2581strong": 719,
  "\u2581\u306f\u3044": 720,
  "\u30cf": 721,
  "\u2581These": 722,
  "\u3059\u3079\u3066\u306e": 723,
  "\u2581judgment": 724,
  "\u2581\u970a": 725,
  "een": 726,
  "\u306e\u5b50": 727,
  "\u2581betw": 728,
  "\u2581gods": 729,
  "\u2581war": 730,
  "\u2581\u6575": 731,
  "\u308c": 732,
  "\u2581became": 733,
  "\u2581\u591a\u304f": 734,
  "\u2581\u5b9a\u3081": 735,
  "\u3059\u3079\u3066": 736,
  "\u2581tribe": 737,
  "\u2581little": 738,
  "\u4e3b\u306f": 739,
  "\u5f7c\u306f": 740,
  "\u2581fall": 741,
  "\u2581wise": 742,
  "\u2581&": 743,
  "\u2581wine": 744,
  "\u2581morning": 745,
  "est": 746,
  "\u2581seek": 747,
  "\u2581art": 748,
  "\u2581back": 749,
  "\u2581truth": 750,
  "\u2581\u796d\u58c7": 751,
  "\u2581\u3080\u304b": 752,
  "\u3081": 753,
  "!\"": 754,
  "\u2581\u3061": 755,
  "\u2581tabernacle": 756,
  "\u2581afraid": 757,
  "\u306a\u3044": 758,
  "\u2581long": 759,
  "\u2581\u53e3": 760,
  "\u3068\u304d": 761,
  "\u2581\u7b2c": 762,
  "\u2581\u3053\u308c\u306f": 763,
  "\u2581wrath": 764,
  "\u2581\u4e3b\u306f": 765,
  "\u3042\u306a\u305f\u304c\u305f": 766,
  "\u2581send": 767,
  "\u2581\u3053": 768,
  "\u2581strength": 769,
  "\u2581\u8840": 770,
  "\u2581Joshua": 771,
  "\u2581wisdom": 772,
  "\u2581\u6c42\u3081": 773,
  "\u2581known": 774,
  "\u2581become": 775,
  "\u3060": 776,
  "\u2581only": 777,
  "You": 778,
  "\u2581\u3088\u308a": 779,
  "\u2581ark": 780,
  "\u307e\u3057\u305f": 781,
  "\u2581\u751f\u304d": 782,
  "\u2581died": 783,
  "\u3067\u3042\u3063\u3066": 784,
  "\u2581cubits": 785,
  "\u2581\u4ed5\u3048": 786,
  "\u2581\u8056": 787,
  "\u3042\u306a\u305f\u304c\u305f\u306e": 788,
  "\u2581gone": 789,
  "\u2581yourselves": 790,
  "\u2581fruit": 791,
  "\u2581mercy": 792,
  "\u2581such": 793,
  "\u2581\u3064\u308b\u304e": 794,
  "\u2581places": 795,
  "\u2581\u81e8": 796,
  "\u2581body": 797,
  "\u2581ground": 798,
  "\u2581\u306c": 799,
  "\u2581\u3053\u3046\u3057\u3066": 800,
  "\u2581\u4e3b\u306a": 801,
  "\u2581\u7f6e": 802,
  "\u2581above": 803,
  "\u2581serve": 804,
  "\u2581\u305d\u308c\u3086\u3048": 805,
  "\u2581\u6e21": 806,
  "\u8005\u306f": 807,
  "\u2581\u5148\u7956": 808,
  "\u3053\u308c": 809,
  "\u2581That": 810,
  "\u2581hav": 811,
  "\u2581\u308f\u308c": 812,
  "\u2581We": 813,
  "\u2581oil": 814,
  "\u2581surely": 815,
  "\u2581\u3076": 816,
  "\u2581\u30a2\u30ed\u30f3": 817,
  "\u6642": 818,
  "\u2581ways": 819,
  "\u2581unclean": 820,
  "\u2581\u559c": 821,
  "\u2581\u72af": 822,
  "\u2581built": 823,
  "\u2581while": 824,
  "\u738b": 825,
  "\u2581temple": 826,
  "\u2581angel": 827,
  "\u2581child": 828,
  "\u2581inhabitants": 829,
  "\u2581\u6765": 830,
  "\u2581\u6b69": 831,
  ".'": 832,
  "\u2581pray": 833,
  "\u2581\u4e00\u7dd2": 834,
  "\u2581tree": 835,
  "\u2581\u547c": 836,
  "\u81ea\u5206\u306e": 837,
  "\u2581sheep": 838,
  "\u2581Hi": 839,
  "\u2581\u305d\u308c\u306f": 840,
  "\u2581\u77f3": 841,
  "\u308b\u3067\u3042\u308d\u3046": 842,
  "\u2581part": 843,
  "\u5f7c\u3089\u3092": 844,
  "\u3060\u3051": 845,
  "\u2581Jordan": 846,
  "\u795e": 847,
  "\u2581\u3059\u308c": 848,
  "\u4e3b": 849,
  "\u2581stone": 850,
  "\u2581enter": 851,
  "\u2581sacrifice": 852,
  "\u2581country": 853,
  "\u2581\u5927\u3044\u306a\u308b": 854,
  "\u2581around": 855,
  "\u2581poor": 856,
  "\u2581\u30ec\u30d3": 857,
  "\u308f\u305f\u3057\u3092": 858,
  "\u2581save": 859,
  "\u2581lived": 860,
  "\u304a": 861,
  "\u884c\u3063\u3066": 862,
  "\u306a\u304b\u3063\u305f": 863,
  "\u8a00\u308f\u308c\u305f": 864,
  "\u2581forever": 865,
  "\u2581\u6012\u308a": 866,
  "\u2581elders": 867,
  "\u2581bear": 868,
  "\u3042\u306a\u305f\u304c": 869,
  "\u2581twelve": 870,
  "\u30ad\u30e5\u30d3\u30c8": 871,
  "\u2581She": 872,
  "\u305b\u3088": 873,
  "\u2581\u56db": 874,
  "\u2581\u6d77": 875,
  "\u2581returned": 876,
  "\u308f\u305f\u3057\u306b": 877,
  "\u2581far": 878,
  "\u2581\u8db3": 879,
  "\u2581third": 880,
  "\u2581\u30bd\u30ed\u30e2\u30f3": 881,
  "\u2581\u90e8\u65cf": 882,
  "\u96c6\u3081": 883,
  "\u2581\u30d1\u30f3": 884,
  "\u2581\u30e6\u30c0\u30e4": 885,
  "\u2581\u826f": 886,
  "\u2581\u96e2\u308c": 887,
  "\u56fd\u6c11": 888,
  "\u2581hold": 889,
  "\u2581sins": 890,
  "\u2581\u8d77": 891,
  "\u2581praise": 892,
  "e": 893,
  "\u2581Of": 894,
  "\u2581blessed": 895,
  "\u2581broken": 896,
  "\u2581\u5411\u304b": 897,
  "\u306e\u304b": 898,
  "\u2581\u3053\u3053": 899,
  "\u2581\u4e94": 900,
  "\u2581\u5f8b\u6cd5": 901,
  "\u2581six": 902,
  "\u2581\u305d": 903,
  "\u3059\u308b": 904,
  "\u2581women": 905,
  "\u2581\u77e5\u6075": 906,
  "\u3067\u3059": 907,
  "\u2581began": 908,
  "\u2581cried": 909,
  "\u2581\u7acb\u3066": 910,
  "\u2581book": 911,
  "\u2581wall": 912,
  "\u306a\u3069": 913,
  "\u2581door": 914,
  "\u30ea": 915,
  "\u2581kill": 916,
  "\u2581mountains": 917,
  "\u2581sat": 918,
  "\u2581\u3076\u3069\u3046": 919,
  "\u2581\u9280": 920,
  "\u2581\u9854": 921,
  "\u2581\u4f7f": 922,
  "\u2581border": 923,
  "\u2581throne": 924,
  "\u2581number": 925,
  "\u2581within": 926,
  "\u2581Ephraim": 927,
  "\u2581find": 928,
  "\u2581judge": 929,
  "\u2581second": 930,
  "\u2581families": 931,
  "\u2581here": 932,
  "\u4e3b\u304c": 933,
  "\u2581therein": 934,
  "\u2581thirty": 935,
  "\u2581\u6368\u3066": 936,
  "\u2581\u65b9": 937,
  "\u2581call": 938,
  "\u2581departed": 939,
  "\u2581\u5fa1": 940,
  "\u2581\u8089": 941,
  "\u2581\u6b21": 942,
  "\u2581\u3059\u308b\u3068": 943,
  "\u2581lest": 944,
  "\u2581mountain": 945,
  "\u3089\u308c\u305f": 946,
  "\u2581stones": 947,
  "\u3042\u308b": 948,
  "\u2581\u306a\u305c": 949,
  "\u2581Go": 950,
  "\u2581receive": 951,
  "\u2581\u66f8": 952,
  "\u2581\u6b8b": 953,
  "ly": 954,
  "\u5f7c\u3092": 955,
  "\u3066\u306f\u306a\u3089\u306a\u3044": 956,
  "\u2581reigned": 957,
  "\u2581Moab": 958,
  "\u2581commandment": 959,
  "\u2581struck": 960,
  "\u2581\u3042\u3052": 961,
  "\u2581build": 962,
  "\u2581killed": 963,
  "\u2581round": 964,
  "\u2581\u5f1f\u5b50": 965,
  "\u2581\u306a\u3093": 966,
  "\u3066\u3044\u308b": 967,
  "\u2581battle": 968,
  "\u2581\u7f8a": 969,
  "\u2581joy": 970,
  "\u2581living": 971,
  "\u2581How": 972,
  "\u2581cry": 973,
  "\u2581Benjamin": 974,
  "\u2581could": 975,
  "\u2581\u308f\u3056": 976,
  "\u2581\u30e8\u30bb\u30d5": 977,
  "\u308f\u304c": 978,
  "\u30ab": 979,
  "\u2581kept": 980,
  "\u3051": 981,
  "\u2581destroyed": 982,
  "\u305b": 983,
  "\u306e\u306f": 984,
  "\u30d9": 985,
  "\u2581\u98f2": 986,
  "\u2581To": 987,
  "\u2581able": 988,
  "\u2581new": 989,
  "\u2581\u3069\u3046\u305e": 990,
  "\u2581\u5951\u7d04": 991,
  "\u2581\u5e55\u5c4b": 992,
  "\u2581\u9023\u308c": 993,
  "\u2581passed": 994,
  "\u2581\u3057\u305f\u304c": 995,
  "\u2581\u753a\u3005": 996,
  "\u2581\u898b\u3088": 997,
  "\u898b\u3088": 998,
  "\u2581\u5efa\u3066": 999,
  "\u2581certain": 1000,
  "\u2581houses": 1001,
  "\u2581asked": 1002,
  "\u2581reign": 1003,
  "\u2581though": 1004,
  "\u2581times": 1005,
  "\u2581Paul": 1006,
  "\u2581army": 1007,
  "\u2581understanding": 1008,
  "\u2581\u6cb9": 1009,
  "ther": 1010,
  "\u2581\u5f37": 1011,
  "\u5f7c\u3089\u306e": 1012,
  "\u2581knowledge": 1013,
  "\u2581\u8ecd": 1014,
  "\u3066\u304f\u3060\u3055\u3044": 1015,
  "\u55e3\u696d": 1016,
  "\u2581rejoice": 1017,
  "\u2581\u7948": 1018,
  "\u2581\u304a\u306e\u304a\u306e": 1019,
  "\u2581Peter": 1020,
  "\u2581\u3075\u305f\u308a": 1021,
  "\u3054\u3068": 1022,
  "\u2581commandments": 1023,
  "\u2581\u304b\u3064": 1024,
  "\u2581\u306e\u307f": 1025,
  "\u2581\u653b\u3081": 1026,
  "\u2581filled": 1027,
  "\u2581Be": 1028,
  "\u2581arose": 1029,
  "\u2581darkness": 1030,
  "\u2581\u6804\u5149": 1031,
  "\u2581\u30d0\u30d3\u30ed\u30f3": 1032,
  "\u2581slain": 1033,
  "\u2581sun": 1034,
  "\u2581\u4ed6": 1035,
  "\u2581\u618e": 1036,
  "\u2581\u6c0f\u65cf": 1037,
  "\u2581\u30d1\u30ed": 1038,
  "\u2581meat": 1039,
  "\u2581\u306a\u304a": 1040,
  "\u5831": 1041,
  "\u2581Because": 1042,
  "\u2581salvation": 1043,
  "\u2581fifty": 1044,
  "\u2581GOD": 1045,
  "\u2581Why": 1046,
  "\u4e3b\u306e": 1047,
  "\u2581forty": 1048,
  "\u2581\u6075\u307f": 1049,
  "\u2581\u9152": 1050,
  "\u3068\u5171\u306b": 1051,
  "\u2581east": 1052,
  "\u2581\u3064\u3051": 1053,
  "\u2581\u30da\u30ea\u30b7\u30c6": 1054,
  "\u305d": 1055,
  "\u300f.": 1056,
  "\u2581Holy": 1057,
  "\u2581trees": 1058,
  "\u2581\u6355\u3048": 1059,
  "\u30f3": 1060,
  "\u4f1d\u3048": 1061,
  "\u3068\u8a00\u3063\u305f": 1062,
  "\u2581\u8352\u91ce": 1063,
  "The": 1064,
  "\u2581Zion": 1065,
  "\u2581sake": 1066,
  "\u795e\u306e": 1067,
  "Behold": 1068,
  "\u2581answer": 1069,
  "\u306a\u3089": 1070,
  "\u2581\u5206": 1071,
  "\u2581Manasseh": 1072,
  "\u3089\u308c\u308b": 1073,
  "\u2581comes": 1074,
  "\u2581throughout": 1075,
  "\u2581\u4e16": 1076,
  "\u2581lie": 1077,
  "\u2581gather": 1078,
  "\u2581valley": 1079,
  "\u2581\u30a2\u30d6\u30e9\u30cf\u30e0": 1080,
  "\u2581\u7363": 1081,
  "\u2581born": 1082,
  "\u2581hosts": 1083,
  "\u2581received": 1084,
  "\u2581\u795d\u798f": 1085,
  "\u2581nation": 1086,
  "\u8ca0": 1087,
  "\u2581Joab": 1088,
  "\u81ea\u8eab": 1089,
  "\u2581One": 1090,
  "\u2581vessels": 1091,
  "\u2581carried": 1092,
  "\u2581fled": 1093,
  "\u2581believe": 1094,
  "\u2581camp": 1095,
  "\u2581\u6c5a\u308c": 1096,
  "\u2581Jeremiah": 1097,
  "\u3053\u3068": 1098,
  "\u6c11": 1099,
  "\u2581B": 1100,
  "\u2581\u6bcd": 1101,
  "\u2581gates": 1102,
  "\u2581\u304a\u307e\u3048": 1103,
  "\u2581\u52a9\u3051": 1104,
  "\u2581must": 1105,
  "\u306f\u8a00\u3063\u305f": 1106,
  "\u2581whe": 1107,
  "\u2581\u53bb": 1108,
  "\u2581river": 1109,
  "\u30a4\u30a8\u30b9": 1110,
  "\u2581heavens": 1111,
  "\u2581\u304b\u305f": 1112,
  "\u2581\u793a": 1113,
  "\u3042\u306a\u305f\u306b": 1114,
  "\u306b\u3064\u3044\u3066": 1115,
  "\u2581\u304d\u3087\u3046": 1116,
  "\u2581\u751f": 1117,
  "\u2581Armies": 1118,
  "\u2581burn": 1119,
  "\u5f7c\u3089\u306b": 1120,
  "soever": 1121,
  "\u2581\u591c": 1122,
  "\u9858": 1123,
  "\u2581sanctuary": 1124,
  "\u2581\u4e0b\u3055": 1125,
  "\u2581\u591a": 1126,
  "\u2581\u6ce8": 1127,
  "\u2581\u796d": 1128,
  "\u2581Samuel": 1129,
  "\u2581statutes": 1130,
  "\u2581Ye": 1131,
  "\u2581money": 1132,
  "\u305f\u306e\u3067": 1133,
  "\u2581\u305d\u306e\u6642": 1134,
  "\u3068\u3057\u3066": 1135,
  "\u2581ears": 1136,
  "\u3053": 1137,
  "\u958b": 1138,
  "\u5e73": 1139,
  "\u2581still": 1140,
  "\u2581\u30b9\u30ea\u30e4": 1141,
  "\u306b\u3082": 1142,
  "\u3082\u306e": 1143,
  "\u2581Is": 1144,
  "\u2581cometh": 1145,
  "\u2581looked": 1146,
  "\u2581half": 1147,
  "\u2581hope": 1148,
  "\u7269": 1149,
  "\u2581\u5165\u308c": 1150,
  "\u2581\u540c\u3058": 1151,
  "\u2581\u7fa9": 1152,
  "\u2581\u81f3": 1153,
  "\u6df1": 1154,
  "\u2581Your": 1155,
  "\u2581pieces": 1156,
  "\u2581service": 1157,
  "\u2581\u7523": 1158,
  "\u308f\u308c\u308f\u308c\u306f": 1159,
  "\u30af": 1160,
  "\u2581counsel": 1161,
  "\u2581\u4fe1\u4ef0": 1162,
  "\u2581\u643a\u3048": 1163,
  "\u4e00": 1164,
  "\u6b73": 1165,
  "\u2581wood": 1166,
  "\u2581\u71d4\u796d": 1167,
  "\u305d\u308c": 1168,
  "\u2581Isaac": 1169,
  "\u3042\u306a\u305f\u304c\u305f\u304c": 1170,
  "\u2581mount": 1171,
  "\u2581\u4e8c\u5341": 1172,
  "\u30e9": 1173,
  "\u2581help": 1174,
  "\u2581north": 1175,
  "\u2581\u5b9f": 1176,
  "\u2581heads": 1177,
  "\u2581opened": 1178,
  "\u82e5": 1179,
  "\u2581look": 1180,
  "\u2581\u3054": 1181,
  "\u30a2": 1182,
  "\u2581appointed": 1183,
  "\u3042\u306a\u305f\u304c\u305f\u306b": 1184,
  "\u307f\u306a": 1185,
  "\u307c": 1186,
  "\u2581wind": 1187,
  "\u305d\u3053\u306b": 1188,
  "\u2581assembly": 1189,
  "\u2581fat": 1190,
  "\u2581incense": 1191,
  "\u2581meet": 1192,
  "\u2581\u5ea7": 1193,
  "\u2581each": 1194,
  "\u2581\u5ddd": 1195,
  "\u8fd4": 1196,
  "\u2581\u7551": 1197,
  "\u2581\u30e8\u30b7\u30e5\u30a2": 1198,
  "\u2581break": 1199,
  "\u2581\u3064\u304b\u3055": 1200,
  "\u2581\u8033": 1201,
  "\u2581Wherefore": 1202,
  "\u3064": 1203,
  "\u795e\u3005": 1204,
  "\u2581knew": 1205,
  "\u2581rose": 1206,
  "\u81ea\u5206": 1207,
  "\u2581present": 1208,
  "\u2581Moreover": 1209,
  "\u2581brass": 1210,
  "\u2581firstborn": 1211,
  "\u2581\u60aa\u3057": 1212,
  "\u307e": 1213,
  "\u2581Hezekiah": 1214,
  "\u2581feast": 1215,
  "\u2581kindness": 1216,
  "\u2581\u304b\u3051": 1217,
  "\u3073": 1218,
  "\u308f\u305f\u3057\u305f\u3061\u306f": 1219,
  "\u2581John": 1220,
  "\u2581command": 1221,
  "\u2581spread": 1222,
  "\u2581\u9032": 1223,
  "\u2581desire": 1224,
  "\u2581offered": 1225,
  "\u2581\u3044\u3064": 1226,
  "\u2581desolate": 1227,
  "\u2581food": 1228,
  "\u2581\u5149": 1229,
  "\u2581\u5c0b\u306d": 1230,
  "\u2581T": 1231,
  "\u2581clean": 1232,
  "\u2581grace": 1233,
  "\u2581\u7d50": 1234,
  "\u2581numbered": 1235,
  "\u2581\u3042\u308b\u3044\u306f": 1236,
  "\u2581\u713c": 1237,
  "ir": 1238,
  "\u2581myself": 1239,
  "\u2581coming": 1240,
  "\u2581\u3069\u3053": 1241,
  "\u2581husband": 1242,
  "\u2581wives": 1243,
  "\u2581\u7740": 1244,
  ".'\"": 1245,
  "\u2581Samaria": 1246,
  "\u2581presence": 1247,
  "\u2581sky": 1248,
  "\u2581\u6559\u3048": 1249,
  "\u2581\u9078": 1250,
  "\u300e": 1251,
  "\u2581\u8a93": 1252,
  "\u305f\u3081\u306b": 1253,
  "\u2581\u751f\u308c": 1254,
  "\u3042\u306a\u305f\u3092": 1255,
  "\u2581court": 1256,
  "\u2581master": 1257,
  "What": 1258,
  "\u2581family": 1259,
  "\u2581generations": 1260,
  "\u2581fine": 1261,
  "\u2581\u6708": 1262,
  "\u2581\u5b50\u4f9b": 1263,
  "\u3068\u3092": 1264,
  "\u3082\u3057": 1265,
  "If": 1266,
  "\u2581\u559c\u3073": 1267,
  "\u2581listen": 1268,
  "\u2581sinned": 1269,
  "\u2581\u6226": 1270,
  "\u30aa": 1271,
  "\u2581\u725b": 1272,
  "\u2581captain": 1273,
  "\u2581\u3063\u3066": 1274,
  "\u2581why": 1275,
  "\u2581chosen": 1276,
  "\u2581wickedness": 1277,
  "\u2581Jonathan": 1278,
  "\u2581lips": 1279,
  "\u2581south": 1280,
  "\u3044\u3066": 1281,
  "\u2581Assyria": 1282,
  "\u2581male": 1283,
  "\u2581most": 1284,
  "\u3067\u306f\u306a\u3044\u304b": 1285,
  "\u3068\u306a\u308a": 1286,
  "\u2581\u6cbb\u3081": 1287,
  "\u2581rise": 1288,
  "\u2581shew": 1289,
  "\u2581\u5012\u308c": 1290,
  "\u3044\u308b": 1291,
  "\u6253": 1292,
  "\u2581\u707d": 1293,
  "\u2581Gilead": 1294,
  "\u2581\u304a\u304a": 1295,
  "\u2581\u3068\u3053\u3057\u3048": 1296,
  "\u2581\u5fc5\u305a": 1297,
  "\u2581\u4e92": 1298,
  "\u3042\u306a\u305f\u306e\u795e": 1299,
  "\u596a": 1300,
  "\u2581sought": 1301,
  "\u2581\u6483": 1302,
  "gat": 1303,
  "\u53ca": 1304,
  "\u7236": 1305,
  "\u2581open": 1306,
  "\u2581perish": 1307,
  "\u2581prince": 1308,
  "\u2581\u3057\u307e": 1309,
  "\u2581\u7bb1": 1310,
  "\u2581captivity": 1311,
  "\u2581seventh": 1312,
  "\u2581\u305f\u3060\u3057": 1313,
  "\u2581\u307e\u3060": 1314,
  "\u2581\u30d1\u30a6\u30ed": 1315,
  "\u3068\u306f": 1316,
  "\u2581hearts": 1317,
  "\u2581rain": 1318,
  "\u2581tongue": 1319,
  "\u2581trust": 1320,
  "\u2581yourself": 1321,
  "\u308f\u308c\u308f\u308c": 1322,
  "\u5099\u3048": 1323,
  "\u7acb\u3063\u3066": 1324,
  "en": 1325,
  "\u2581deal": 1326,
  "\u2581\u3042\u308b": 1327,
  "lt": 1328,
  "\u2581everyone": 1329,
  "\u2581eye": 1330,
  "\u2581rock": 1331,
  "\u2581suburbs": 1332,
  "\u2581\u3042\u304b\u3057": 1333,
  "\u2581\u6212\u3081": 1334,
  "\u30a4\u30b9\u30e9\u30a8\u30eb": 1335,
  "\u2581Take": 1336,
  "\u2581captains": 1337,
  "\u2581\u6b4c": 1338,
  "\u2581sister": 1339,
  "\u2581\u308f\u305f\u3057\u304c": 1340,
  "\u2581Beth": 1341,
  "\u2581ask": 1342,
  "\u2581followed": 1343,
  "\u2581smote": 1344,
  "\u2581yea": 1345,
  "\u2581\u3086\u308b": 1346,
  "\u3088\u3046": 1347,
  "\u5165": 1348,
  "\u2581\"'": 1349,
  "\u2581dwelt": 1350,
  "\u2581wait": 1351,
  "\u3067\u3057\u3087\u3046": 1352,
  "\u2581going": 1353,
  "\u2581walked": 1354,
  "\u2581\u3042\u306e": 1355,
  "\u2581\u507d\u308a": 1356,
  "\u2581\u4fe1": 1357,
  "\u2581\u6570": 1358,
  "\u3088\u308a\u3082": 1359,
  "\u6d17": 1360,
  "gt": 1361,
  "\u2581\u30e2\u30a2\u30d6": 1362,
  "\u2581chariots": 1363,
  "\u2581ear": 1364,
  "\u2581\u305d\u308c\u3067": 1365,
  "\u8ecd\u52e2": 1366,
  "\u2581dust": 1367,
  "\u2581horses": 1368,
  "\u2581sit": 1369,
  "\u2581\u6ec5\u3073": 1370,
  "\u306e\u4e0a\u306b": 1371,
  "\u2581Yes": 1372,
  "\u2581Yet": 1373,
  "\u2581bless": 1374,
  "\u2581cloud": 1375,
  "\u2581\u3042\u306a\u305f\u306e": 1376,
  "\u9b42": 1377,
  "\u2581tribes": 1378,
  "\u2581\u305d\u3046\u3059\u308c\u3070": 1379,
  "\u2581\u4ef0\u305b": 1380,
  "\u2581\u541b": 1381,
  "\u3055\u308c\u305f": 1382,
  "\u8ffd": 1383,
  "\u2581\u56fd\u3005": 1384,
  "\u2581\u98df\u7269": 1385,
  "\u2581tent": 1386,
  "\u2581\u91ce": 1387,
  "\u2581alone": 1388,
  "\u2581cattle": 1389,
  "\u2581flock": 1390,
  "\u30ad\u30ea\u30b9\u30c8": 1391,
  "\u2581Absalom": 1392,
  "\u2581leave": 1393,
  "\u30b7": 1394,
  "\u2581entered": 1395,
  "\u5730": 1396,
  "\u2581better": 1397,
  "\u2581\u4f9b\u3048\u7269": 1398,
  "\u304f\u3060\u3055\u3044": 1399,
  "\u795e\u306f": 1400,
  "Do": 1401,
  "\u3058": 1402,
  "\u2581remember": 1403,
  "\u2581wilt": 1404,
  "\u2581\u304e": 1405,
  "\u2581\u767e": 1406,
  "\u306b\u3042\u308b": 1407,
  "\u2581peoples": 1408,
  "\u8cdc\u308f": 1409,
  "\u2581saved": 1410,
  "\u2581trouble": 1411,
  "\u2581bare": 1412,
  "\u2581Baal": 1413,
  "\u2581\u3069\u3082": 1414,
  "\u30bb": 1415,
  "\u6d41": 1416,
  "\u2581burned": 1417,
  "\u2581ones": 1418,
  "\u2581Gentiles": 1419,
  "\u2581beast": 1420,
  "\u306e\u4e2d\u306b": 1421,
  "\u306f\u306a\u3089\u306a\u3044": 1422,
  "\u529b": 1423,
  "\u3082\u307e\u305f": 1424,
  "\u2581Jeroboam": 1425,
  "\u2581possess": 1426,
  "\u2581\u3055\u3070\u304d": 1427,
  "\u2581\u3068\u3053\u308d\u304c": 1428,
  "\u304b\u3064": 1429,
  "\u305f\u3061": 1430,
  "\u5834\u6240": 1431,
  "\u2581spoil": 1432,
  "\u2581thyself": 1433,
  "\u2581\u30a8\u30d5\u30e9\u30a4\u30e0": 1434,
  "\u2581\u4e3b\u4eba": 1435,
  "\u2581\u5c0f\u7f8a": 1436,
  "\u2581\u72a0\u7272": 1437,
  "\u2581\u30d9\u30cb\u30e4\u30df\u30f3": 1438,
  "\u3042\u3063\u305f": 1439,
  "\u304c\u3042\u308b": 1440,
  "\u3070": 1441,
  "\u65e5": 1442,
  "\u2581carry": 1443,
  "\u2581enemy": 1444,
  "\u2581shut": 1445,
  "\u2581fight": 1446,
  "\u2581possession": 1447,
  "\u306a\u304a": 1448,
  "\u30b7\u30b1\u30eb": 1449,
  "\u2581beloved": 1450,
  "\u2581buried": 1451,
  "\u2581portion": 1452,
  "\u2581witness": 1453,
  "\u2581\u5168": 1454,
  "\u2581\u5b89\u606f": 1455,
  "\u306b\u8a00\u308f\u308c\u305f": 1456,
  "\u3093\u3060": 1457,
  "\u2581Esau": 1458,
  "\u4eba\u306f": 1459,
  "\u5f7c\u3089\u304c": 1460,
  "\u2581\u518d\u3073": 1461,
  "\u9a5a": 1462,
  "\u2581garments": 1463,
  "\u2581prayer": 1464,
  "\u2581\u3068\u3069\u307e": 1465,
  "\u30a6": 1466,
  "\u2581curse": 1467,
  "\u2581evening": 1468,
  "\u2581idols": 1469,
  "\u2581prepared": 1470,
  "\u2581\u3088\u304f": 1471,
  "\u2581\u7fa4\u308c": 1472,
  "\u306e\u3046\u3061\u306b": 1473,
  "\u2581get": 1474,
  "\u2581\u6226\u3044": 1475,
  "\u30df": 1476,
  "\u75c5": 1477,
  "\u671b": 1478,
  "\u2581King": 1479,
  "\u2581linen": 1480,
  "\u304b\u3057\u3089": 1481,
  "\u53eb": 1482,
  "\u5b50": 1483,
  "\u2581show": 1484,
  "\u306e\u3067\u3059": 1485,
  "\u307b\u3081\u305f\u305f\u3048": 1486,
  "\u2581generation": 1487,
  "\u5606": 1488,
  "\u753a": 1489,
  "\u796d\u53f8": 1490,
  "\u2581Blessed": 1491,
  "\u2581anointed": 1492,
  "\u2581depart": 1493,
  "\u2581worship": 1494,
  "\u2581\u96c6\u307e": 1495,
  "\u304a\u304d\u3066": 1496,
  "\u2581hill": 1497,
  "\u2581sound": 1498,
  "\u2581\u7a2e": 1499,
  "\u2581\u7fa4\u8846": 1500,
  "\u2581pure": 1501,
  "\u2581\u611a\u304b": 1502,
  "\u2581After": 1503,
  "\u2581bound": 1504,
  "\u2581vain": 1505,
  "\u2581\u8056\u6240": 1506,
  "\u3053\u308c\u306f": 1507,
  "\u2581S": 1508,
  "\u2581believed": 1509,
  "\u2581covered": 1510,
  "\u2581lion": 1511,
  "\u304d\u3066": 1512,
  "\u3055\u308c\u308b": 1513,
  "\u5f7c\u306b": 1514,
  "\u2581\u6c5a": 1515,
  "\u2581famine": 1516,
  "\u2581flee": 1517,
  "\u2581\u30da\u30c6\u30ed": 1518,
  "\u5805": 1519,
  "\u2581host": 1520,
  "\u2581\u611f\u8b1d": 1521,
  "\u4eba\u3005\u306f": 1522,
  "\u846c": 1523,
  "\u2581beginning": 1524,
  "\u2581\u9577\u8001": 1525,
  "\u305f\u3081": 1526,
  "\u3066\u8a00\u3063\u305f": 1527,
  "\u4f0f": 1528,
  "\u51fa": 1529,
  "\u2581\u30e8\u30eb\u30c0\u30f3": 1530,
  "\u2581\u5468\u56f2": 1531,
  "\u2581\u7537": 1532,
  "\u3082\u308d\u3082\u308d\u306e": 1533,
  "\u4eca": 1534,
  "er": 1535,
  "\u2581Ammon": 1536,
  "\u2581slew": 1537,
  "\u2581names": 1538,
  "\u2581\u3042\u3042": 1539,
  "\u2581eaten": 1540,
  "\u2581teach": 1541,
  "\u2581\u3059\u3067\u306b": 1542,
  "\u2581\u308f\u305f": 1543,
  "\u50cf": 1544,
  "\u5f85": 1545,
  "\u2581[": 1546,
  "\u2581beside": 1547,
  "\u2581pillars": 1548,
  "\u2581small": 1549,
  "\u2581\u6570\u3048": 1550,
  "\u2581\u8fd1\u3065": 1551,
  "\u3089\u305b": 1552,
  "\u8863\u670d": 1553,
  "\u2581Egyptians": 1554,
  "\u2581bow": 1555,
  "\u2581iron": 1556,
  "\u2581manner": 1557,
  "\u2581utterly": 1558,
  "\u304d\u305f": 1559,
  "\u653e": 1560,
  "\u2581clothes": 1561,
  "\u2581plague": 1562,
  "\u2581\u3055\u3070": 1563,
  "\u2581\u53f3": 1564,
  "\u2581bones": 1565,
  "\u2581alive": 1566,
  "\u2581just": 1567,
  "\u30a4\u30a8\u30b9\u306f": 1568,
  "\u884c\u3063\u305f": 1569,
  "\u2581image": 1570,
  "\u2581\u3064\u304f": 1571,
  "\u305d\u308c\u306f": 1572,
  "\u591a\u304f\u306e": 1573,
  "\u2581\u3014": 1574,
  "\u2581\u3044\u3064\u304f\u3057\u307f": 1575,
  "\u2581\u30a4\u30a8\u30b9\u306f": 1576,
  "\u2581\u5916": 1577,
  "\u2581\u5bbf\u55b6": 1578,
  "\u2581\u8c37": 1579,
  "\u3055\u305b": 1580,
  "\u30a4\u30b9\u30e9\u30a8\u30eb\u306e": 1581,
  "\u30b6": 1582,
  "\u30e1": 1583,
  "\u2581top": 1584,
  "\u5fc3": 1585,
  "\u2581\u3042\u3068": 1586,
  "\u2581\u65ad": 1587,
  "\u2581\u8ca7\u3057": 1588,
  "\u306e\u306b": 1589,
  "\u559c\u3073": 1590,
  "\u2581loved": 1591,
  "\u2581raised": 1592,
  "\u2581shame": 1593,
  "\u2581\u795e\u306f": 1594,
  "\u2581\u7d76\u3048": 1595,
  "\u3053\u3068\u3054\u3068\u304f": 1596,
  "\u2581foot": 1597,
  "\u2581\u671d": 1598,
  "\u2581Ahab": 1599,
  "\u2581hour": 1600,
  "\u2581\u6fc0\u3057": 1601,
  "\u300f.\"": 1602,
  "\u3069\u3046\u3057\u3066": 1603,
  "\u3080": 1604,
  "\u6388\u3051": 1605,
  "\u2581Canaan": 1606,
  "\u2581\u67f1": 1607,
  "\u2581cannot": 1608,
  "\u2581\u304a\u3053\u306a": 1609,
  "\u2581\u305d\u3080": 1610,
  "\u610f": 1611,
  "\u2581mind": 1612,
  "\u2581understand": 1613,
  "\u2581\u3042\u306a\u305f\u304c": 1614,
  "\u2581\u30b7\u30aa\u30f3": 1615,
  "\u597d": 1616,
  "\u2581Where": 1617,
  "\u2581\u9001": 1618,
  "\u6240": 1619,
  "\u2581\u516d": 1620,
  "\u305f\u3060": 1621,
  "\u540c": 1622,
  "\u2581destruction": 1623,
  "\u2581follow": 1624,
  "\u2581saints": 1625,
  "\u2581sing": 1626,
  "\u2581\u8a71": 1627,
  "\u3078": 1628,
  "\u2581riches": 1629,
  "\u2581\u592b": 1630,
  "\u4e3b\u306b": 1631,
  "\u8a00\u3046": 1632,
  "\u2581Come": 1633,
  "\u2581shekels": 1634,
  "\u2581\u3048": 1635,
  "\u2581\u30de\u30ca\u30bb": 1636,
  "\u2581\u6771": 1637,
  "\u304c\u3042\u3063\u305f": 1638,
  "\u305d\u3057\u3066": 1639,
  "\u3070\u304b\u308a": 1640,
  "\u2581consumed": 1641,
  "\u2581hate": 1642,
  "\u2581\u5bcc": 1643,
  "\u3042\u306a\u305f\u304c\u305f\u3092": 1644,
  "\u4e3b\u306e\u524d\u306b": 1645,
  "\u5f7c\u306e": 1646,
  "\u898b": 1647,
  "\u2581loving": 1648,
  "\u306a\u308b": 1649,
  "\u2581remnant": 1650,
  "(": 1651,
  "\u2581never": 1652,
  "\u2581stranger": 1653,
  "\u2581\u6012": 1654,
  "\u5b66": 1655,
  "\u2581till": 1656,
  "\u2581angels": 1657,
  "\u2581hid": 1658,
  "\u2581indeed": 1659,
  "\u2581perfect": 1660,
  "\u2581\u3051": 1661,
  "\u2581\u5668": 1662,
  "\u304c\u3042\u308a": 1663,
  "\u2581\u3081": 1664,
  "\u2581\u5f7c\u3089\u304c": 1665,
  "\u306e\u524d\u306b": 1666,
  "\u5fd8\u308c": 1667,
  "\u2581ashamed": 1668,
  "\u2581devour": 1669,
  "\u2581testimony": 1670,
  "\u2581thanks": 1671,
  "\u2581\u304f\u308c": 1672,
  "\u304b\u3089\u3060": 1673,
  "\u2581ram": 1674,
  "\u2581\u6e80\u3061": 1675,
  "\u2581\u7f70": 1676,
  "\u2581\u4ee3": 1677,
  "\u5c0a": 1678,
  "\u7406": 1679,
  "\u2581Edom": 1680,
  "\u2581poured": 1681,
  "\u2581\u307e\u3053\u3068": 1682,
  "\u2581\u4e09\u5341": 1683,
  "\u2581\u5927": 1684,
  "\u306b\u3080\u304b\u3063\u3066": 1685,
  "\u547d": 1686,
  "\u5f7c\u304c": 1687,
  "\u2581Or": 1688,
  "\u2581goats": 1689,
  "\u2581\u306a\u304c\u3089": 1690,
  "\u2581\u4f1a": 1691,
  "\u5927\u3044\u306a\u308b": 1692,
  "\u2581\u30a8\u30ec\u30df\u30e4": 1693,
  "\u3044\u307e\u3059": 1694,
  "\u52d5": 1695,
  "\u30c8": 1696,
  "\u2581remain": 1697,
  "\u2581\u307e\u307e": 1698,
  "\u2581\u308d\u3070": 1699,
  "\u2581\u96f2": 1700,
  "\u2581\u99ac": 1701,
  "\u5c5e": 1702,
  "\u2581Hear": 1703,
  "\u2581Pharisees": 1704,
  "\u2581pit": 1705,
  "\u2581\u3069\u3093\u306a": 1706,
  "\u3063\u3066\u3044\u308b": 1707,
  "\u7bc9": 1708,
  "\u88c2": 1709,
  "\u2581Jehoshaphat": 1710,
  "\u2581breadth": 1711,
  "\u2581\u30e8\u30a2\u30d6": 1712,
  "\u2581\u5ea6": 1713,
  "\u308f\u305f\u3057\u305f\u3061": 1714,
  "\u8a2d\u3051": 1715,
  "Go": 1716,
  "\u2581free": 1717,
  "\u2581ready": 1718,
  "\u2581\u305d\u308c\u304b\u3089": 1719,
  "\u2581\u30b5\u30e0\u30a8\u30eb": 1720,
  "\u306e\u5b50\u5b6b": 1721,
  "\u2581glad": 1722,
  "\u2581rich": 1723,
  "\u2581sick": 1724,
  "\u2581\u304b\u305f\u308f\u3089": 1725,
  "\u3066\u3044\u305f": 1726,
  "\u2581Tent": 1727,
  "\u2581atonement": 1728,
  "\u2581fallen": 1729,
  "\u2581\u62dd": 1730,
  "\u2581lives": 1731,
  "\u2581meal": 1732,
  "\u2581sweet": 1733,
  "\u795e\u304c": 1734,
  "\u2581Daniel": 1735,
  "\u2581served": 1736,
  "\u2581\u4f5c": 1737,
  "\u60aa": 1738,
  "\u2581Also": 1739,
  "\u2581last": 1740,
  "\u2581\u3057\u308b\u3057": 1741,
  "\u2581\u4e0d\u7fa9": 1742,
  "\u2581\u5317": 1743,
  "\u2581\u96c4\u7f8a": 1744,
  "\u3067\u3042\u308a": 1745,
  "\u2581committed": 1746,
  "\u2581\u308f\u304b": 1747,
  "\u2581\u30a2": 1748,
  "\u2581\u5929\u5e55": 1749,
  "\u2581\u73fe\u308c": 1750,
  "\u2581\u771f\u5b9f": 1751,
  "From": 1752,
  "on": 1753,
  "\u2581drew": 1754,
  "\u2581greatly": 1755,
  "\u2581sign": 1756,
  "\u2581draw": 1757,
  "\u2581\u307e\u3055": 1758,
  "\u2581\u307f\u305a\u304b\u3089": 1759,
  "\u2581\u30e8\u30cf\u30cd": 1760,
  "\u2581Elijah": 1761,
  "\u2581everlasting": 1762,
  "\u2581lead": 1763,
  "\u2581reproach": 1764,
  "\u2581since": 1765,
  "\u2581sleep": 1766,
  "\u2581\u5bb6\u6765": 1767,
  "\u2581C": 1768,
  "\u2581\u5148": 1769,
  "\u304d\u3087\u3046": 1770,
  "This": 1771,
  "\u2581At": 1772,
  "\u2581ruler": 1773,
  "\u2581\u307b\u3069": 1774,
  "\u2581\u898b\u3048": 1775,
  "\u5730\u306b": 1776,
  "\u2581\u3082\u306f\u3084": 1777,
  "\u2581\u6e80\u305f": 1778,
  "\u3068\u3053\u308d": 1779,
  "\u308f\u308c\u308f\u308c\u306e": 1780,
  "\u30b8": 1781,
  "\u4e8b\u3092": 1782,
  "\u2581bore": 1783,
  "\u2581flocks": 1784,
  "\u2581lambs": 1785,
  "\u2581led": 1786,
  "\u2581\u3057\u308b": 1787,
  "\u2581\u30a4\u30b5\u30af": 1788,
  "\u660e": 1789,
  "yond": 1790,
  "\u5973": 1791,
  "\u5f8c": 1792,
  "\u2581Even": 1793,
  "\u2581happen": 1794,
  "\u2581\u7570\u90a6": 1795,
  "\u66b4": 1796,
  "\u2581No": 1797,
  "\u2581blind": 1798,
  "\u2581length": 1799,
  "\u2581sold": 1800,
  "\u2581\u5ca9": 1801,
  "\u2581minister": 1802,
  "\u2581write": 1803,
  "\u2581bed": 1804,
  "\u2581fulfilled": 1805,
  "\u2581rod": 1806,
  "\u9810\u8a00\u8005": 1807,
  "\u2581established": 1808,
  "\u2581garment": 1809,
  "\u2581prophesy": 1810,
  "\u2581wash": 1811,
  "\u56f2": 1812,
  "\u7815": 1813,
  "\u2581On": 1814,
  "\u2581early": 1815,
  "\u2581judgments": 1816,
  "\u2581\u601d\u3044": 1817,
  "\u30a4\u30b9\u30e9\u30a8\u30eb\u306e\u795e": 1818,
  "\u5171\u306b": 1819,
  "\u2581With": 1820,
  "\u2581\u5bb6\u755c": 1821,
  "\u30e0": 1822,
  "\u7528\u3044": 1823,
  "hose": 1824,
  "\u2581increase": 1825,
  "\u3089\u308c": 1826,
  "\u2581fourth": 1827,
  "\u2581lies": 1828,
  "\u2581rulers": 1829,
  "\u2581\u4f1a\u8846": 1830,
  "\u2581\u50d5": 1831,
  "\u2581\u98df": 1832,
  "\u308b\u3068": 1833,
  "\u308f\u305f\u3057\u305f\u3061\u306e": 1834,
  "\u4e0a": 1835,
  "\u62db": 1836,
  "\u2581beasts": 1837,
  "\u2581continually": 1838,
  "\u2581sacrifices": 1839,
  "\u2581\u521d\u3081": 1840,
  "\u2581\u6c38\u9060": 1841,
  "\u2581bowed": 1842,
  "\u2581wherein": 1843,
  "\u2581\u5974\u96b7": 1844,
  "\u3093\u3067": 1845,
  "\u8af8": 1846,
  "\u2581aside": 1847,
  "\u2581messengers": 1848,
  "\u2581\u5165\u53e3": 1849,
  "\u2581\u5185": 1850,
  "\u3052": 1851,
  "\u30d5": 1852,
  "\u2581behind": 1853,
  "\u2581table": 1854,
  "\u2581\u30c7": 1855,
  "\u3092\u3082": 1856,
  "\u4eba\u304c": 1857,
  "\u624b": 1858,
  "\u2581s": 1859,
  "]": 1860,
  "\u2581healed": 1861,
  "\u2581pour": 1862,
  "\u2581rams": 1863,
  "\u2581\u30ab\u30ca\u30f3": 1864,
  "\u3053\u3046": 1865,
  "\u305d\u3046": 1866,
  "\u3064\u3044\u306b": 1867,
  "\u2581tenth": 1868,
  "\u2581\u7372": 1869,
  "\u2581\u9020\u308a": 1870,
  "\u306e\u3067\u3059\u304b": 1871,
  "\u8005\u304c": 1872,
  "Why": 1873,
  "\u548c": 1874,
  "\u2581declare": 1875,
  "\u2581faithful": 1876,
  "\u2581souls": 1877,
  "\u2581waste": 1878,
  "\u2581wings": 1879,
  "\u2581\u5927\u304d\u306a": 1880,
  "\u30a8\u30eb\u30b5\u30ec\u30e0": 1881,
  "\u6700\u3082": 1882,
  "\u2581certainly": 1883,
  "\u2581vision": 1884,
  "\u3053\u3068\u306f": 1885,
  "\u307e\u305f\u306f": 1886,
  "\u307f\u305a\u304b\u3089": 1887,
  "\u6050\u308c": 1888,
  "\u6b3a": 1889,
  "\u2581seeing": 1890,
  "\u2581\u9003\u3052": 1891,
  "\u2581\u901a": 1892,
  "\u3068\u3044\u3046": 1893,
  "\u3068\u8a00\u3046": 1894,
  "\u2581Neither": 1895,
  "\u2581reason": 1896,
  "\u2581\u3064\u3044\u306b": 1897,
  "\u2581\u60a9\u307f": 1898,
  "\u2581\u96c4": 1899,
  "\u2581\u96c4\u725b": 1900,
  "\u304b\u3089\u3067\u3059": 1901,
  "\u2581Levi": 1902,
  "\u2581guard": 1903,
  "\u2581heathen": 1904,
  "\u2581\u308f\u305f\u3057\u305f\u3061\u306f": 1905,
  "\u2581\u30d2\u30bc\u30ad\u30e4": 1906,
  "\u2581\u5168\u5730": 1907,
  "\u2581\u79fb": 1908,
  "\u4e00\u3064\u306e": 1909,
  "\u2581please": 1910,
  "\u2581skin": 1911,
  "\u2581speaking": 1912,
  "\u2581\u5076\u50cf": 1913,
  "\u2581\u52c7\u58eb": 1914,
  "\u2581\u5f15": 1915,
  "\u2581\u7d04\u675f": 1916,
  "\u3042\u308b\u3044\u306f": 1917,
  "\u3061": 1918,
  "\u9867\u307f": 1919,
  "\u2581Gad": 1920,
  "\u2581cover": 1921,
  "\u2581greater": 1922,
  "\u2581prison": 1923,
  "\u2581\u4e94\u5341": 1924,
  "\u76d7": 1925,
  "\u2581trespass": 1926,
  "\u4eba\u3092": 1927,
  "\u9664": 1928,
  "\u2581white": 1929,
  "\u2581\u3055\u3042": 1930,
  "\u53d7\u3051\u3044\u308c": 1931,
  "\u2581Thy": 1932,
  "\u2581company": 1933,
  "\u2581noise": 1934,
  "\u2581parts": 1935,
  "\u2581\u3060\u304b\u3089": 1936,
  "\u2581\u30e8\u30ca\u30bf\u30f3": 1937,
  "\u5bb6\u65cf": 1938,
  "\u6255": 1939,
  "\u6b7b": 1940,
  "\u884c\u304f": 1941,
  "\u2581Nebuchadnezzar": 1942,
  "\u2581always": 1943,
  "\u2581dry": 1944,
  "\u2581ought": 1945,
  "\u2581\u3044\u3084": 1946,
  "\u2581\u9752\u9285": 1947,
  "\u5a66": 1948,
  "\u8a93": 1949,
  "ness": 1950,
  "\u2581named": 1951,
  "\u2581prey": 1952,
  "\u2581seventy": 1953,
  "\u2581strike": 1954,
  "\u2581\u547c\u3070": 1955,
  "\u3067\u3082": 1956,
  "\u30b9": 1957,
  "\u2581Give": 1958,
  "\u2581abominations": 1959,
  "\u2581branches": 1960,
  "\u2581matter": 1961,
  "\u2581reward": 1962,
  "\u2581\u30a2\u30c3": 1963,
  "\u2581\u4f1a\u898b": 1964,
  "\u2581\u5408\u308f\u305b": 1965,
  "\u30d3": 1966,
  "\u738b\u306e": 1967,
  "\u9060": 1968,
  "\u2581anything": 1969,
  "\u2581honour": 1970,
  "\u2581\u30b5\u30de\u30ea\u30e4": 1971,
  "\u30db": 1972,
  "\u5bc4": 1973,
  "\u6a29": 1974,
  "\u2581Meeting": 1975,
  "\u2581Syria": 1976,
  "\u2581dream": 1977,
  "\u2581justice": 1978,
  "\u2581oxen": 1979,
  "\u2581taught": 1980,
  "\u2581\u3050": 1981,
  "),": 1982,
  "\u2581obey": 1983,
  "\u2581standing": 1984,
  "\u2581\u3059\u308f": 1985,
  "\u2581\u671b\u307f": 1986,
  "\u3082\u306f\u3084": 1987,
  "\u2581Dan": 1988,
  "\u2581Hebron": 1989,
  "\u2581Simon": 1990,
  "\u2581angry": 1991,
  "\u2581clothed": 1992,
  "\u2581hide": 1993,
  "\u2581womb": 1994,
  "\u2581youth": 1995,
  "\u2581\u308f\u305f\u3057\u306e": 1996,
  "\u2581\u6e05": 1997,
  "\u30b1": 1998,
  "\u2581affliction": 1999,
  "\u2581arise": 2000,
  "\u2581lot": 2001,
  "\u2581measure": 2002,
  "\u2581precious": 2003,
  "\u2581thence": 2004,
  "\u2581\u304b\u3089\u3060": 2005,
  "\u2581\u57ce\u58c1": 2006,
  "\u3069\u3046\u305e": 2007,
  "\u805e\u3048": 2008,
  "\u2581Chaldeans": 2009,
  "\u2581faces": 2010,
  "\u2581next": 2011,
  "\u2581true": 2012,
  "\u30a4": 2013,
  "\u30da": 2014,
  "\u2581Selah": 2015,
  "\u2581abundance": 2016,
  "\u2581\u4eca\u65e5": 2017,
  "\u2581\u56db\u5341": 2018,
  "\u30b3": 2019,
  "\u56fd": 2020,
  "?'": 2021,
  "\u2581Reuben": 2022,
  "\u2581animals": 2023,
  "\u2581except": 2024,
  "\u306b\u5411\u304b\u3063\u3066": 2025,
  "\u3092\u53d6\u3063\u3066": 2026,
  "\u30b0": 2027,
  "\u77f3": 2028,
  "Let": 2029,
  "\u2581Eleazar": 2030,
  "\u2581\u5883": 2031,
  "\u2581\u6642\u306b": 2032,
  "\u3072\u3068\u308a\u306e": 2033,
  "\u2581abomination": 2034,
  "\u2581encamped": 2035,
  "\u2581hair": 2036,
  "\u2581think": 2037,
  "\u2581\u3084\u304e": 2038,
  "\u2581\u30ae\u30ec\u30a2": 2039,
  "\u2581\u96a0": 2040,
  "\u3068\u3057": 2041,
  "\u306e\u5b50\u3089\u306f": 2042,
  "\u4e92\u306b": 2043,
  "\u5b89": 2044,
  "\u8ff0\u3079": 2045,
  "\u2581Every": 2046,
  "\u2581doors": 2047,
  "\u2581lamb": 2048,
  "\u2581vineyard": 2049,
  "\u2581\u306f\u305a\u304b\u3057\u3081": 2050,
  "\u306e\u3060": 2051,
  "\u30e2": 2052,
  "\u2581Shall": 2053,
  "\u2581deep": 2054,
  "\u2581feed": 2055,
  "\u2581neighbor": 2056,
  "\u2581prepare": 2057,
  "\u3068\u304c": 2058,
  "\u3068\u8a00\u3063\u3066": 2059,
  "\u30c0\u30d3\u30c7": 2060,
  "\u30e6\u30c0": 2061,
  "\u5224": 2062,
  "\u2581villages": 2063,
  "\u2581\u4e3b\u304c": 2064,
  "\u306b\u3057\u305f\u304c\u3063\u3066": 2065,
  "\u30a4\u30b9\u30e9\u30a8\u30eb\u306e\u4eba\u3005": 2066,
  "\u8a18": 2067,
  "as": 2068,
  "\u2581appeared": 2069,
  "\u2581exalted": 2070,
  "\u2581forsaken": 2071,
  "\u2581inherit": 2072,
  "\u2581pleasant": 2073,
  "\u2581rebuke": 2074,
  "\u2581scattered": 2075,
  "\u2581tents": 2076,
  "\u2581\u3042\u304c\u306a": 2077,
  "\u2581\u52d9": 2078,
  "\u2581\u609f": 2079,
  "\u2581\u65b0\u3057": 2080,
  "\u4eba\u306e": 2081,
  "\u2581Lebanon": 2082,
  "\u2581Th": 2083,
  "\u2581captive": 2084,
  "\u2581delight": 2085,
  "\u2581Which": 2086,
  "\u2581moved": 2087,
  "\u2581ordinances": 2088,
  "\u2581west": 2089,
  "\u2581\u306e\u304c\u308c": 2090,
  "\u3079": 2091,
  "\u307e\u3057\u3087\u3046": 2092,
  "\u8a00": 2093,
  "\u2581commit": 2094,
  "\u2581fool": 2095,
  "\u2581\u7a74": 2096,
  "\u5012": 2097,
  "\u76ee": 2098,
  "\u91d1": 2099,
  "\u2581Galilee": 2100,
  "\u2581gives": 2101,
  "\u2581read": 2102,
  "\u2581\u30a8\u30c9\u30e0": 2103,
  "\u2581\u5272\u793c": 2104,
  "\u5e74": 2105,
  "\u65bd": 2106,
  "\u2581wept": 2107,
  "\u2581won": 2108,
  "\u3055": 2109,
  "\u3067\u306f\u306a\u304f": 2110,
  "\u5834\u5408": 2111,
  "\u2581charge": 2112,
  "\u2581fast": 2113,
  "\u2581shadow": 2114,
  "\u2581walls": 2115,
  "\u2581\u5f7c\u304c": 2116,
  "\u2581\u7d20\u796d": 2117,
  "\u3042\u308a": 2118,
  "\u3068\u306a\u308b": 2119,
  "\u2581Surely": 2120,
  "\u2581acts": 2121,
  "\u2581cup": 2122,
  "\u2581eight": 2123,
  "\u2581household": 2124,
  "\u2581kind": 2125,
  "\u2581revealed": 2126,
  "\u2581vanity": 2127,
  "\u2581\u305d\u306e\u3068\u304d": 2128,
  "\u2581\u308f\u3056\u308f\u3044": 2129,
  "\u2581\u975e\u5e38": 2130,
  "\u30ed": 2131,
  "\u544a": 2132,
  "in": 2133,
  "\u2581Woe": 2134,
  "\u2581harvest": 2135,
  "\u2581suffer": 2136,
  "\u2581worthy": 2137,
  "\u2581\u52a0\u3048": 2138,
  "\u30d0": 2139,
  "\u5931": 2140,
  "\u2581Amorites": 2141,
  "\u2581rivers": 2142,
  "\u2581un": 2143,
  "\u2581\u304b\u3064\u3066": 2144,
  "\u2581\u50cd": 2145,
  "\u2581\u5927\u304d": 2146,
  "\u2581\u8a87": 2147,
  "\u308f": 2148,
  "\u2581burden": 2149,
  "\u2581observe": 2150,
  "\u2581shewed": 2151,
  "\u2581\u516b": 2152,
  "\u2581\u82e5\u8005": 2153,
  "\u2581\u9858\u3044": 2154,
  "\u60a9": 2155,
  "r": 2156,
  "\u2581Bethel": 2157,
  "\u2581arm": 2158,
  "\u2581\u3042\u308f\u308c\u307f": 2159,
  "\u5fa9": 2160,
  "We": 2161,
  "\u2581honor": 2162,
  "\u2581rule": 2163,
  "\u2581sabbath": 2164,
  "\u2581scribes": 2165,
  "\u2581stretched": 2166,
  "\u2581\u304b\u3048\u3063\u3066": 2167,
  "\u2581\u5c0e": 2168,
  "\u3082\u306e\u3067\u3042\u308b": 2169,
  "\u8a31": 2170,
  "\u2581refuge": 2171,
  "\u2581wrote": 2172,
  "\u2581yes": 2173,
  "\u2581\u4e0d": 2174,
  "\u2581\u6ce3": 2175,
  "\u3055\u308c": 2176,
  "\u306b\u5f93\u3063\u3066": 2177,
  "\u3092\u3053\u3068\u3054\u3068\u304f": 2178,
  "\u30ad": 2179,
  "\u4e8c": 2180,
  "\u8a3c\u4eba": 2181,
  "\u9280": 2182,
  "\u2581Sabbath": 2183,
  "\u2581divided": 2184,
  "\u2581horns": 2185,
  "\u2581\u3042\u308f\u308c": 2186,
  "\u2581\u5927\u3044\u306b": 2187,
  "\u2581Abimelech": 2188,
  "\u2581Kingdom": 2189,
  "\u2581false": 2190,
  "\u2581fought": 2191,
  "\u2581god": 2192,
  "\u2581kindled": 2193,
  "\u2581removed": 2194,
  "\u2581thousands": 2195,
  "\u2581troubled": 2196,
  "\u2581\u3055\u3089\u306b": 2197,
  "\u2581\u3082\u3046": 2198,
  "\u2581\u82e6\u3057\u307f": 2199,
  "\u306b\u306a\u3063\u305f": 2200,
  "\u3076": 2201,
  "\u518d\u3073": 2202,
  "\u5bb6": 2203,
  "\u7f6a": 2204,
  "\u2581neck": 2205,
  "\u2581person": 2206,
  "\u2581raise": 2207,
  "\u2581\u3044\u306e\u3061": 2208,
  "\u2581\u30e9\u30c3\u30d1": 2209,
  "\u2581\u4f7f\u8005": 2210,
  "\u2581\u7d42": 2211,
  "\u2581Wil": 2212,
  "\u2581few": 2213,
  "\u2581\u30a8\u30ea\u30b7\u30e3": 2214,
  "\u2581\u5893": 2215,
  "\u3042\u3044\u3060": 2216,
  "\u3068\u8a00\u308f\u308c\u305f": 2217,
  "\u5f7c\u306b\u8a00\u3063\u305f": 2218,
  "He": 2219,
  "\u2581upward": 2220,
  "\u2581whatever": 2221,
  "\u2581\u30a8\u30ea\u30e4": 2222,
  "\u4eba\u3005": 2223,
  "\u8a3c": 2224,
  "Please": 2225,
  "\u2581Shechem": 2226,
  "\u2581goeth": 2227,
  "\u2581neighbour": 2228,
  "\u2581streets": 2229,
  "\u2581\u6226\u8eca": 2230,
  "\u2581\u7740\u7269": 2231,
  "\u2581\u8a34\u3048": 2232,
  "\u3053\u308c\u306b": 2233,
  "\u2581Abram": 2234,
  "\u2581anyone": 2235,
  "\u2581crown": 2236,
  "\u2581vine": 2237,
  "\u2581\u6065": 2238,
  "\u2581\u7f6a\u796d": 2239,
  "\u2581\u8d77\u304d": 2240,
  "\u3057\u3066\u3044\u308b": 2241,
  "\u8005\u3067\u3042\u308b": 2242,
  "\u2581Amen": 2243,
  "\u2581Mount": 2244,
  "\u2581clothing": 2245,
  "\u2581feared": 2246,
  "\u2581ship": 2247,
  "\u2581thought": 2248,
  "\u2581\u3044\u307e": 2249,
  "\u2581\u3055\u3044\u308f\u3044": 2250,
  "\u2581\u30a2\u30d6\u30b5\u30ed\u30e0": 2251,
  "\u304a\u306e\u304a\u306e": 2252,
  "\u3068\u306a\u3063\u305f": 2253,
  "\u306e\u3086\u3048\u306b": 2254,
  "\u4e8b": 2255,
  "\u5fcd": 2256,
  "\u2581blessing": 2257,
  "\u2581livestock": 2258,
  "\u2581\u30a2\u30f3\u30e2\u30f3": 2259,
  "\u2581\u5bdd": 2260,
  "\u2581\u7d42\u308a": 2261,
  "\u306f\u307f\u306a": 2262,
  "\u5f8b\u6cd5": 2263,
  "\u656c": 2264,
  "\u8005\u3092": 2265,
  "\u9818": 2266,
  "\u2581fail": 2267,
  "\u2581grain": 2268,
  "\u2581whither": 2269,
  "\u2581\u3080\u3059\u3053": 2270,
  "\u2581\u6e05\u3081": 2271,
  "\u3060\u304b\u3089\u3067\u3042\u308b": 2272,
  "\u884c\u3044": 2273,
  "\u2581others": 2274,
  "\u2581whosoever": 2275,
  "\u2581\u6b7b\u4eba": 2276,
  "\u2581\u8863": 2277,
  "\u3060\u308c\u304c": 2278,
  "\u2581Zedekiah": 2279,
  "\u2581blemish": 2280,
  "\u2581signs": 2281,
  "\u2581\u3042\u306a\u305f\u304c\u305f\u304c": 2282,
  "\u2581\u77e5\u8b58": 2283,
  "\u306e\u4e2d\u3067": 2284,
  "\u738b\u306f": 2285,
  "\u8aad": 2286,
  "\u2581defiled": 2287,
  "\u2581giveth": 2288,
  "\u2581height": 2289,
  "\u2581stayed": 2290,
  "\u2581\u5f53": 2291,
  "\u2581\u98a8": 2292,
  "\u304a\u308a": 2293,
  "\u305f\u304c": 2294,
  "\u521d": 2295,
  "\u5439": 2296,
  "\u8056\u306a\u308b": 2297,
  "\u9053": 2298,
  "\u2581makes": 2299,
  "\u2581outside": 2300,
  "\u2581upright": 2301,
  "\u2581\u6804\u3048": 2302,
  "\u8089": 2303,
  "\u904b": 2304,
  "\u2581Again": 2305,
  "\u2581order": 2306,
  "\u4e00\u3064": 2307,
  "\u2581judged": 2308,
  "\u2581officers": 2309,
  "\u2581\u50be\u3051": 2310,
  "\u305f\u3081\u3067\u3042\u308b": 2311,
  "\u4e0b": 2312,
  "\u6226\u3044": 2313,
  "\u8abf\u3079": 2314,
  "m": 2315,
  "\u2581Jericho": 2316,
  "\u2581abroad": 2317,
  "\u2581forsake": 2318,
  "\u2581ran": 2319,
  "\u2581run": 2320,
  "\u307e\u3060": 2321,
  "\u7686": 2322,
  "\u2581Abner": 2323,
  "\u2581grass": 2324,
  "\u306f\u305d\u306e": 2325,
  "\u5f7c\u5973": 2326,
  "\u2581cease": 2327,
  "\u2581escape": 2328,
  "\u2581likewise": 2329,
  "\u2581\u5e38": 2330,
  "\u3042\u306a\u305f\u304c\u305f\u306e\u795e": 2331,
  "\u308b\u8005\u306f": 2332,
  "\u59bb": 2333,
  "\u76e3": 2334,
  "\u907f\u3051": 2335,
  "\u96e2": 2336,
  "\u2581Syrians": 2337,
  "\u4ed6\u306e": 2338,
  "\u5144\u5f1f": 2339,
  "\u2581Jehu": 2340,
  "\u2581animal": 2341,
  "\u2581apostles": 2342,
  "\u2581hearken": 2343,
  "\u2581maketh": 2344,
  "\u2581oath": 2345,
  "\u2581pleasure": 2346,
  "\u2581strangers": 2347,
  "\u2581whoever": 2348,
  "\u2581\u3057\u3048": 2349,
  "\u2581\u3059\u3050": 2350,
  "\u2581\u679d": 2351,
  "\u2581\u798f\u97f3": 2352,
  "\u3042\u306e": 2353,
  "\u3053\u3068\u304c": 2354,
  "\u306b\u5bfe\u3057\u3066": 2355,
  "\u30ca": 2356,
  "\u6575": 2357,
  "h": 2358,
  "\u2581prayed": 2359,
  "\u2581\u307e\u305a": 2360,
  "\u2581\u6240\u6709": 2361,
  "\u2581\u76ae": 2362,
  "\u2581\u8352\u308c": 2363,
  "\u2581\u91cd": 2364,
  "\u7f8a": 2365,
  "\u2581edge": 2366,
  "\u2581loud": 2367,
  "\u2581seat": 2368,
  "\u2581slay": 2369,
  "\u2581trumpet": 2370,
  "\u2581\u30d0\u30a2\u30eb": 2371,
  "\u2581\u9ce5": 2372,
  "\u4eba\u3005\u304c": 2373,
  "\u4eba\u306e\u5b50": 2374,
  "\u4f4f\u6c11": 2375,
  "\u6c34": 2376,
  "\u826f\u3044": 2377,
  "\u884c\u304d": 2378,
  "For": 2379,
  "\u2581Bashan": 2380,
  "\u2581Job": 2381,
  "\u2581Nevertheless": 2382,
  "\u2581heed": 2383,
  "\u2581\u3042\u3060": 2384,
  "\u2581\u3064\u3048": 2385,
  "\u305d\u306e\u4eba": 2386,
  "\u601d\u3044": 2387,
  "\u60aa\u3044": 2388,
  "\u6d77": 2389,
  "\u77e5\u3089\u305b": 2390,
  "\u9054": 2391,
  "\u2581Mordecai": 2392,
  "\u2581bull": 2393,
  "\u2581eternal": 2394,
  "\u2581home": 2395,
  "\u2581lying": 2396,
  "\u2581secret": 2397,
  "\u2581sorrow": 2398,
  "\u2581swear": 2399,
  "\u2581\u3053\u308d": 2400,
  "\u2581\u3080\u3057\u308d": 2401,
  "\u2581\u5ba3\u3079": 2402,
  "\u2581\u7a7a": 2403,
  "\u308b\u3088\u3046\u306b": 2404,
  "\u970a": 2405,
  "\u9802": 2406,
  "It": 2407,
  "\u2581chariot": 2408,
  "\u2581sprinkle": 2409,
  "\u2581treasures": 2410,
  "\u2581\u3042\u304c": 2411,
  "\u2581\u304f\u308b": 2412,
  "\u2581\u5e73\u5b89": 2413,
  "\u2581\u5f7c\u3089\u306e": 2414,
  "\u30c7": 2415,
  "\u30e4": 2416,
  "\u4e0b\u308a": 2417,
  "\u5074": 2418,
  "\u6c11\u306f": 2419,
  "\u2581Balaam": 2420,
  "\u2581Damascus": 2421,
  "\u2581months": 2422,
  "\u2581want": 2423,
  "\u2581\u4f4d": 2424,
  "\u2581\u884c\u3044": 2425,
  "\u308f\u3051": 2426,
  "\u5927": 2427,
  "\u2581Asa": 2428,
  "\u2581comfort": 2429,
  "\u2581lo": 2430,
  "\u2581rather": 2431,
  "\u2581\u3057\u3057": 2432,
  "\u2581\u6c17": 2433,
  "\u306a\u305c": 2434,
  "\u4e71": 2435,
  "\u8eab": 2436,
  "\u2581burning": 2437,
  "\u2581pleased": 2438,
  "\u2581watch": 2439,
  "\u2581\u30a8\u30b5\u30a6": 2440,
  "\u3042": 2441,
  "\u652f\u914d": 2442,
  "\u653e\u7267": 2443,
  "\u796d\u58c7": 2444,
  "\u2581fields": 2445,
  "\u2581goat": 2446,
  "\u2581hills": 2447,
  "\u2581horsemen": 2448,
  "\u2581once": 2449,
  "\u2581smite": 2450,
  "\u2581\u2015\u2015": 2451,
  "\u2581\u4e57": 2452,
  "\u2581\u5f31": 2453,
  "\u3055\u305b\u305f": 2454,
  "for": 2455,
  "\u2581See": 2456,
  "\u2581journey": 2457,
  "\u2581ox": 2458,
  "\u2581redeemed": 2459,
  "\u2581\u3068\u3082": 2460,
  "\u2581\u3080\u306a\u3057": 2461,
  "\u2581\u30c0\u30d3\u30c7\u306f": 2462,
  "\u2581\u5168\u304f": 2463,
  "\u2581\u5ead": 2464,
  "\u2581\u7720": 2465,
  "\u3053\u308c\u3089\u306e": 2466,
  "\u3092\u53d6\u308a": 2467,
  "\u5929": 2468,
  "\u5a18": 2469,
  "\u75c5\u6c17": 2470,
  "\u795e\u306b": 2471,
  "\u7f6e": 2472,
  "ur": 2473,
  "\u2581choose": 2474,
  "\u2581consider": 2475,
  "\u2581dwelling": 2476,
  "\u2581fifth": 2477,
  "\u2581images": 2478,
  "\u2581immediately": 2479,
  "\u2581remembered": 2480,
  "\u2581\u3055\u304d": 2481,
  "\u2581\u3084\u3081": 2482,
  "\u3066\u3082": 2483,
  "\u3089\u306a\u3051\u308c\u3070\u306a\u3089\u306a\u3044": 2484,
  "\u80b2": 2485,
  "\u2581altars": 2486,
  "\u2581ate": 2487,
  "\u2581hidden": 2488,
  "\u2581judges": 2489,
  "\u2581\u307b\u3081": 2490,
  "\u2581\u5357": 2491,
  "\u2581\u89d2": 2492,
  "\u8a8d\u3081": 2493,
  "\u2581\u5206\u3051": 2494,
  "\u2581\u98df\u4e8b": 2495,
  "\u3053\u3053\u306b": 2496,
  "\u2581Yea": 2497,
  "\u2581birds": 2498,
  "\u2581hard": 2499,
  "\u2581soon": 2500,
  "\u2581unleavened": 2501,
  "\u2581\u6170\u3081": 2502,
  "\u305d\u306e\u5b50": 2503,
  "\u306e\u3046\u3061": 2504,
  "\u308b\u305f\u3081\u306b": 2505,
  "\u629c": 2506,
  "\u6708": 2507,
  "\u7fa4": 2508,
  "\u2581Elisha": 2509,
  "\u2581baptized": 2510,
  "\u2581forget": 2511,
  "\u2581forgive": 2512,
  "\u2581held": 2513,
  "\u2581need": 2514,
  "\u2581yoke": 2515,
  "\u2581\u305f\u3052": 2516,
  "\u2581\u3069\u3046\u304b": 2517,
  "\u2581\u58f2": 2518,
  "\u2581\u5c0e\u304d\u51fa": 2519,
  "\u4f38\u3079": 2520,
  "\u601d": 2521,
  "\u2581kingdoms": 2522,
  "\u2581\u304b\u306e": 2523,
  "\u2581\u59e6\u6deb": 2524,
  "\u61a4": 2525,
  "\u2581Almighty": 2526,
  "\u2581sitting": 2527,
  "\u2581\u30e4\u30e9\u30d9\u30a2\u30e0": 2528,
  "\u2581\u9999": 2529,
  "\u3057\u306a\u3051\u308c\u3070\u306a\u3089\u306a\u3044": 2530,
  "\u305d\u306e\u4e0a\u306b": 2531,
  "\u306a\u304c\u3089": 2532,
  "\u3092\u898b\u3066": 2533,
  "\u30ec": 2534,
  "\u6728": 2535,
  "\u7948": 2536,
  "\u9000": 2537,
  "Good": 2538,
  "\u2581Have": 2539,
  "\u2581Laban": 2540,
  "\u2581Pilate": 2541,
  "\u2581honey": 2542,
  "\u2581mayest": 2543,
  "\u2581too": 2544,
  "\u2581\u3053\u308c\u3089\u306f": 2545,
  "\u2581\u4ee5\u4e0a": 2546,
  "\u304d\u3088\u3081": 2547,
  "\u6751\u3005": 2548,
  "\u767a": 2549,
  "Who": 2550,
  "\u2581afflicted": 2551,
  "\u2581devoured": 2552,
  "\u2581escaped": 2553,
  "\u2581favor": 2554,
  "\u2581low": 2555,
  "\u2581thoughts": 2556,
  "\u2581\u820c": 2557,
  "\u3057\u304b\u3057": 2558,
  "\u4fae": 2559,
  "\u2581redeem": 2560,
  "\u2581\u547d\u4ee4": 2561,
  "\u2581\u6559": 2562,
  "\u2581\u71c3\u3048": 2563,
  "\u307b\u304b\u306e": 2564,
  "\u523b": 2565,
  "\u624b\u3092": 2566,
  "\u2581Esther": 2567,
  "\u2581gift": 2568,
  "\u2581governor": 2569,
  "\u2581hated": 2570,
  "\u2581instruments": 2571,
  "\u2581\u304f\u3058": 2572,
  "\u2581\u6d41\u308c": 2573,
  "\u306a\u304f": 2574,
  "\u65e9": 2575,
  "\u2581doing": 2576,
  "\u2581goes": 2577,
  "\u2581ourselves": 2578,
  "\u2581room": 2579,
  "\u2581scribe": 2580,
  "\u2581slaughter": 2581,
  "\u306e\u305f\u3081": 2582,
  "\u624b\u7d19": 2583,
  "\u8c4a\u304b": 2584,
  "\u2581Arise": 2585,
  "\u2581Mary": 2586,
  "\u2581sanctified": 2587,
  "\u2581widow": 2588,
  "\u3088\u304f": 2589,
  "\u4e3b\u306a\u308b\u795e\u306f\u3053\u3046\u8a00\u308f\u308c\u308b": 2590,
  "\u51a0": 2591,
  "\u611f": 2592,
  "\u2581bind": 2593,
  "\u2581buy": 2594,
  "\u2581\u96e8": 2595,
  "\u540d\u3092": 2596,
  "\u6ec5\u3073": 2597,
  "\u2581Man": 2598,
  "\u2581despised": 2599,
  "\u2581dominion": 2600,
  "\u2581friends": 2601,
  "\u2581plain": 2602,
  "\u2581weight": 2603,
  "\u2581\u304a\u306e\u308c": 2604,
  "\u2581\u4e73": 2605,
  "\u2581\u5922": 2606,
  "\u885b": 2607,
  "\u2581bullock": 2608,
  "\u2581drive": 2609,
  "\u2581finished": 2610,
  "\u2581\u697d\u3057": 2611,
  "\u2581\u8056\u5225": 2612,
  "\u2581Haman": 2613,
  "\u2581Josiah": 2614,
  "\u2581Zadok": 2615,
  "\u2581sockets": 2616,
  "\u2581spare": 2617,
  "\u2581violence": 2618,
  "\u2581\u9aa8": 2619,
  "\u306a\u3044\u3067\u304f\u3060\u3055\u3044": 2620,
  "\u306f\u6b21\u306e\u3068\u304a\u308a\u3067\u3042\u308b": 2621,
  "\u307b\u3068\u308a": 2622,
  "\u592a": 2623,
  "\u6b7b\u3093\u3060": 2624,
  "\u7acb\u3061": 2625,
  "\u8870\u3048": 2626,
  "\u2581desolation": 2627,
  "\u2581pay": 2628,
  "\u2581\u8fce\u3048": 2629,
  "\u3063\u3066\u306f\u306a\u3089\u306a\u3044": 2630,
  "\u30e6\u30c0\u30e4\u4eba": 2631,
  "\u5c71": 2632,
  "\u8981": 2633,
  "\u2581Satan": 2634,
  "\u2581authority": 2635,
  "\u2581foolish": 2636,
  "\u2581preached": 2637,
  "\u2581song": 2638,
  "\u2581\u3053\u306e\u4e16": 2639,
  "\u2581\u306e\u308d": 2640,
  "\u2581\u30bb\u30e9": 2641,
  "\u2581\u61a4\u308a": 2642,
  "\u3067\u3042\u308d\u3046\u304b": 2643,
  "\u3068\u3053\u3057\u3048\u306b": 2644,
  "\u308b\u8005": 2645,
  "\u4fe1\u4ef0": 2646,
  "less": 2647,
  "\u2581Praise": 2648,
  "\u2581ends": 2649,
  "\u2581foundation": 2650,
  "\u2581nakedness": 2651,
  "\u2581promise": 2652,
  "\u2581sanctify": 2653,
  "\u2581sore": 2654,
  "\u2581stay": 2655,
  "\u2581\u304d\u304d\u3093": 2656,
  "\u2581\u3054\u3089\u3093": 2657,
  "\u2581\u5bbf": 2658,
  "\u2581\u60b2\u3057\u307f": 2659,
  "\u2581\u9996": 2660,
  "\u6b7b\u306c": 2661,
  "\u98df\u7269": 2662,
  "ous": 2663,
  "\u2581remained": 2664,
  "\u3055\u3070\u304d": 2665,
  "\u3068\u4e00\u7dd2\u306b": 2666,
  "\u306a\u304c\u3089\u3048": 2667,
  "\u3082\u306e\u306f": 2668,
  "\u30e8\u30bb\u30d5": 2669,
  "\u5927\u3044\u306b": 2670,
  "\u2581knoweth": 2671,
  "\u2581queen": 2672,
  "\u2581\u304f\u3061\u3073\u308b": 2673,
  "\u2581\u3088\u307f\u304c\u3048": 2674,
  "\u2581\u899a\u3048": 2675,
  "\u30e2\u30fc\u30bb": 2676,
  "\u591c": 2677,
  "\u2581Rehoboam": 2678,
  "\u2581fish": 2679,
  "\u2581gifts": 2680,
  "\u2581trumpets": 2681,
  "\u2581\u304b\u304b": 2682,
  "\u2581\u7121": 2683,
  "\u3068\u8a00\u3044": 2684,
  "\u306e\u524d\u3067": 2685,
  "\u308b\u3067\u3057\u3087\u3046": 2686,
  "\u9580": 2687,
  "\u2581Noah": 2688,
  "\u2581adversaries": 2689,
  "\u2581establish": 2690,
  "\u2581fruits": 2691,
  "\u2581labor": 2692,
  "\u2581moon": 2693,
  "\u2581\u307b\u3057": 2694,
  "\u2581\u307f\u3093\u306a": 2695,
  "\u2581\u4fe1\u3058": 2696,
  "\u307e\u305a": 2697,
  "\u7269\u3092": 2698,
  "\u805e\u304d\u5f93": 2699,
  "ough": 2700,
  "with": 2701,
  "\u2581exceedingly": 2702,
  "\u2581flour": 2703,
  "\u2581handmaid": 2704,
  "\u2581season": 2705,
  "\u2581swallow": 2706,
  "\u2581\u308f\u308c\u308f\u308c\u306f": 2707,
  "\u2581\u6b8b\u308a": 2708,
  "\u516c": 2709,
  "\u540d\u3065\u3051": 2710,
  "\u6bcd": 2711,
  "\u2581corn": 2712,
  "\u2581gospel": 2713,
  "\u2581mourning": 2714,
  "\u3059\u3067\u306b": 2715,
  "\u3060\u308c\u3082": 2716,
  "\u30d1": 2717,
  "\u5411\u3051": 2718,
  "\u592b": 2719,
  "\u5ba3": 2720,
  "\u2581Jehoiada": 2721,
  "\u2581appearance": 2722,
  "\u2581countries": 2723,
  "\u2581garden": 2724,
  "\u2581habitation": 2725,
  "\u2581hurt": 2726,
  "\u2581pride": 2727,
  "\u2581stars": 2728,
  "\u2581\u4e3b\u306f\u8a00\u308f\u308c\u308b": 2729,
  "\u2581\u6b63\u7fa9": 2730,
  "\u2581\u7f8e\u3057": 2731,
  "\u3067\u306f": 2732,
  "\u306e\u3092": 2733,
  "\u30d6": 2734,
  "\u4f53": 2735,
  "\u76ca": 2736,
  "Come": 2737,
  "Now": 2738,
  "\u2581Naphtali": 2739,
  "\u2581fill": 2740,
  "\u2581iniquities": 2741,
  "\u2581\u5343": 2742,
  "\u2581\u8056\u970a": 2743,
  "\u307e\u308f\u308a": 2744,
  "\u3082\u306e\u3092": 2745,
  "\u5a01": 2746,
  "\u98fe": 2747,
  "\u2581Mos": 2748,
  "\u2581Sodom": 2749,
  "\u2581decree": 2750,
  "\u2581teaching": 2751,
  "\u2581\u3042\u3089\u308f": 2752,
  "\u2581\u6025": 2753,
  "\u304b\u3063\u305f": 2754,
  "\u306e\u7236": 2755,
  ".)": 2756,
  "\u2581cedar": 2757,
  "\u2581divide": 2758,
  "\u2581speech": 2759,
  "\u2581wonders": 2760,
  "\u2581\u30d1\u30ea\u30b5\u30a4": 2761,
  "\u2581\u5e73\u548c": 2762,
  "\u3069\u3093\u306a": 2763,
  "\u6765\u3066": 2764,
  "Yahweh": 2765,
  "able": 2766,
  "\u2581pillar": 2767,
  "\u2581scarlet": 2768,
  "\u2581testify": 2769,
  "\u2581weep": 2770,
  "\u2581\u30c0\u30f3": 2771,
  "\u2581\u5207": 2772,
  "\u2581\u663c": 2773,
  "\u3092\u898b": 2774,
  "\u30a8\u30eb": 2775,
  "\u524d\u306b": 2776,
  "\u5e55\u5c4b": 2777,
  "\u73fe": 2778,
  "My": 2779,
  "ah": 2780,
  "\u2581camels": 2781,
  "\u2581else": 2782,
  "\u2581spear": 2783,
  "\u2581talents": 2784,
  "\u2581touched": 2785,
  "\u2581wheat": 2786,
  "\u2581wrought": 2787,
  "\u2581\u3061\u308a": 2788,
  "\u2581\u306a\u305c\u306a\u3089": 2789,
  "\u2581\u306d": 2790,
  "\u2581\u306e\u3061": 2791,
  "\u308f\u308c\u308f\u308c\u306e\u795e": 2792,
  "\u6551": 2793,
  "\u2581Ishmael": 2794,
  "\u2581Simeon": 2795,
  "\u2581besides": 2796,
  "\u2581consume": 2797,
  "\u2581wild": 2798,
  "\u2581\u30d0\u30d7\u30c6\u30b9\u30de": 2799,
  "\u2581\u8003\u3048": 2800,
  "\u2581\u9244": 2801,
  "\u516d\u5341": 2802,
  "\u5c3d": 2803,
  "\u2581Joash": 2804,
  "\u2581News": 2805,
  "\u2581forward": 2806,
  "\u2581grow": 2807,
  "\u2581nigh": 2808,
  "\u2581root": 2809,
  "\u2581slept": 2810,
  "\u2581strange": 2811,
  "\u2581\u30b7\u30e2\u30f3": 2812,
  "\u2581\u5c0f\u3055": 2813,
  "\u6301": 2814,
  "\u6d88": 2815,
  "\u8e0f": 2816,
  "\u2581Azariah": 2817,
  "\u2581blue": 2818,
  "\u2581breath": 2819,
  "\u2581conceived": 2820,
  "\u2581ephod": 2821,
  "\u2581former": 2822,
  "\u2581inquire": 2823,
  "\u2581weak": 2824,
  "\u2581\u5b89\u3089\u304b": 2825,
  "\u2581\u60aa\u970a": 2826,
  "\u2581\u8ffd\u3044\u51fa": 2827,
  "\u2581\u983c": 2828,
  "\u304e": 2829,
  "\u306e\u5a18": 2830,
  "\u308d\u3070": 2831,
  "\u4ed5": 2832,
  "\u2581Jesse": 2833,
  "\u2581P": 2834,
  "\u2581compassion": 2835,
  "\u2581purple": 2836,
  "\u2581towns": 2837,
  "\u2581\u3055\u3048": 2838,
  "\u2581\u5f7c\u5973\u306f": 2839,
  "\u2581\u8ce2": 2840,
  "\u306e\u9593": 2841,
  "\u307e\u305b\u3093": 2842,
  "\u308b\u306a\u3089\u3070": 2843,
  "\u4eba\u306b": 2844,
  "\u5949": 2845,
  "\u793c\u62dd": 2846,
  ")": 2847,
  "--": 2848,
  "\u2581swore": 2849,
  "\u2581transgressions": 2850,
  "\u2581\u3042\u3089\u3086\u308b": 2851,
  "\u2581\u3053\u306e\u3088\u3046\u306b": 2852,
  "\u3067\u306f\u306a\u3044": 2853,
  "\u306f\u7686": 2854,
  "\u4eba\u3005\u306b": 2855,
  "\u4efb": 2856,
  "\u53d6\u308a": 2857,
  "\u6012\u308a": 2858,
  "\u671b\u307f": 2859,
  "\u793a": 2860,
  "\u8650": 2861,
  "\u2581apart": 2862,
  "\u2581milk": 2863,
  "\u2581morrow": 2864,
  "\u2581needy": 2865,
  "\u2581parable": 2866,
  "\u2581profit": 2867,
  "\u2581thither": 2868,
  "\u2581tower": 2869,
  "\u2581witnesses": 2870,
  "\u2581\u547d\u3058": 2871,
  "\u2581\u60aa\u4eba": 2872,
  "\u2581\u771f\u7406": 2873,
  "\u3042\u304c\u3081": 2874,
  "\u3044\u307e": 2875,
  "\u304c\u3042\u3063\u3066": 2876,
  "\u3064\u308b\u304e": 2877,
  "\u3068\u306b": 2878,
  "\u308f\u305f\u3057\u306e\u305f\u3081\u306b": 2879,
  "\u30a4\u30a8\u30b9\u304c": 2880,
  "\u7a81": 2881,
  "\u2581borders": 2882,
  "\u2581grave": 2883,
  "\u2581rejoiced": 2884,
  "\u2581shield": 2885,
  "\u2581\u3042\u306a\u305f\u304c\u305f\u306e": 2886,
  "\u2581\u3044\u3051": 2887,
  "\u2581\u4f7f\u5f92": 2888,
  "\u2581\u6551\u3044\u51fa": 2889,
  "\u2581\u6614": 2890,
  "\u2581\u676f": 2891,
  "\u2581\u8d70": 2892,
  "\u2581\u8fd1": 2893,
  "\u306b\u306a\u3063\u3066": 2894,
  "\u5927\u304d\u306a": 2895,
  "\u5b50\u4f9b": 2896,
  "\u5bae": 2897,
  "\u5f93": 2898,
  "\u7387\u3044": 2899,
  "\u2581doeth": 2900,
  "\u2581driven": 2901,
  "\u2581persons": 2902,
  "\u2581wave": 2903,
  "\u2581\u305d\u306e\u65e5": 2904,
  "\u2581\u5bc4\u7559": 2905,
  "\u305d\u306e\u4eba\u306f": 2906,
  "\u8a9e\u308b": 2907,
  "\u990a": 2908,
  "\u2581Canaanites": 2909,
  "\u2581Tyre": 2910,
  "\u2581compass": 2911,
  "\u2581daily": 2912,
  "\u2581doings": 2913,
  "\u2581pestilence": 2914,
  "\u2581quickly": 2915,
  "\u2581respect": 2916,
  "\u2581sinners": 2917,
  "\u2581weeping": 2918,
  "\u2581\u6b7b\u4f53": 2919,
  "\u2581\u897f": 2920,
  "\u30bf\u30e9\u30f3\u30c8": 2921,
  "\u4f8d": 2922,
  "\u6210\u5c31": 2923,
  "\u63a2": 2924,
  "\u66f2": 2925,
  "\u7b54\u3048\u305f": 2926,
  "\u8846": 2927,
  "\u2581E": 2928,
  "\u2581Rachel": 2929,
  "\u2581array": 2930,
  "\u2581bought": 2931,
  "\u2581foreigner": 2932,
  "\u2581friend": 2933,
  "\u2581glorified": 2934,
  "\u2581past": 2935,
  "\u2581prophesied": 2936,
  "\u2581shepherd": 2937,
  "\u2581threescore": 2938,
  "\u2581yield": 2939,
  "\u2581\u3069\u306e": 2940,
  "\u2581\u30d8\u30d6\u30ed\u30f3": 2941,
  "\u2581\u5e7b": 2942,
  "\u2581\u8056\u5f92": 2943,
  "\u3042\u3063\u3066": 2944,
  "\u3042\u308f\u308c\u307f": 2945,
  "\u304b\u306a\u3051\u308c\u3070\u306a\u3089\u306a\u3044": 2946,
  "\u306e\u3046\u3061\u304b\u3089": 2947,
  "\u30c3": 2948,
  "\u6295\u3052\u5165\u308c": 2949,
  "\u6483\u3061\u6bba": 2950,
  "\u6b63\u3057\u3044": 2951,
  "\u2581Whoever": 2952,
  "\u2581fellow": 2953,
  "\u2581knowing": 2954,
  "\u2581perform": 2955,
  "\u2581teeth": 2956,
  "\u2581tread": 2957,
  "\u2581\u3044\u3063\u305f\u3044": 2958,
  "\u2581\u306a\u3057": 2959,
  "\u3060\u308d\u3046\u304b": 2960,
  "\u306b\u3088\u308b": 2961,
  "\u30a8\u30b8\u30d7\u30c8": 2962,
  "\u4e3b\u306f\u3053\u3046\u8a00\u308f\u308c\u308b": 2963,
  "\u5730\u306e": 2964,
  "\u5857": 2965,
  "\u601d\u3044\u51fa": 2966,
  "\u6240\u306b": 2967,
  "\u982d": 2968,
  "\u2581appoint": 2969,
  "\u2581clouds": 2970,
  "\u2581covering": 2971,
  "\u2581devil": 2972,
  "\u2581female": 2973,
  "\u2581itself": 2974,
  "\u2581joined": 2975,
  "\u2581liveth": 2976,
  "\u2581washed": 2977,
  "\u2581\u6c7a\u3057\u3066": 2978,
  "\u30ec\u30d3\u3073\u3068": 2979,
  "\u4e18": 2980,
  "\u53d6\u308a\u53bb": 2981,
  "\u8056\u6240": 2982,
  "\u2581D": 2983,
  "\u2581bodies": 2984,
  "\u2581plant": 2985,
  "\u2581promised": 2986,
  "\u2581snare": 2987,
  "\u2581stead": 2988,
  "\u2581vineyards": 2989,
  "\u2581\u30e8\u30b7\u30e3": 2990,
  "\u2581\u5712": 2991,
  "\u2581\u5e45": 2992,
  "\u2581\u6559\u4f1a": 2993,
  "\u2581\u8170": 2994,
  "\u2581\u8cac\u3081": 2995,
  "\u304b\u306e": 2996,
  "\u3054": 2997,
  "\u9663": 2998,
  "\u2581Eli": 2999,
  "\u2581Zebulun": 3000,
  "\u2581along": 3001,
  "\u2581created": 3002,
  "\u2581donkey": 3003,
  "\u2581piece": 3004,
  "\u2581thick": 3005,
  "\u2581\u5834": 3006,
  "\u2581\u843d\u3061": 3007,
  "\u2581\u89e3": 3008,
  "\u2581\u8cb7": 3009,
  "\u3065": 3010,
  "\u30d1\u30f3": 3011,
  "\u4e0a\u7740": 3012,
  "\u2581Nathan": 3013,
  "\u2581increased": 3014,
  "\u2581interpretation": 3015,
  "\u2581letter": 3016,
  "\u2581multiply": 3017,
  "\u2581prostitute": 3018,
  "\u2581shed": 3019,
  "\u2581\u3051\u308c\u3069": 3020,
  "\u2581\u5584": 3021,
  "\u2581\u5909": 3022,
  "\u2581\u7ffc": 3023,
  "\u3068\u306a\u3063\u3066": 3024,
  "\u308f\u305f\u3057\u305f\u3061\u304c": 3025,
  "\u5341": 3026,
  "\u2581deeds": 3027,
  "\u2581labour": 3028,
  "\u2581measured": 3029,
  "\u2581prosper": 3030,
  "\u2581sixty": 3031,
  "\u2581steps": 3032,
  "\u2581sworn": 3033,
  "\u2581\u5f7c\u306f\u307e\u305f": 3034,
  "\u2581\u609f\u308a": 3035,
  "\u2581\u7a40\u7269": 3036,
  "\u3057\u306a\u3055\u3044": 3037,
  "\u3086\u3048": 3038,
  "\u30dc": 3039,
  "\u5ddd": 3040,
  "\u6226": 3041,
  "\u6642\u306f": 3042,
  "\u6b63": 3043,
  "\u77e5\u308c": 3044,
  "\u884c": 3045,
  "\u2581age": 3046,
  "\u2581gladness": 3047,
  "\u2581inner": 3048,
  "\u2581kiss": 3049,
  "\u2581looking": 3050,
  "\u2581pitched": 3051,
  "\u2581thorns": 3052,
  "\u2581\u3082\u3089": 3053,
  "\u2581\u30d1\u30c6": 3054,
  "\u3053\u306e\u3088\u3046\u306b": 3055,
  "\u3068\u305d\u306e\u653e\u7267\u5730": 3056,
  "\u3072\u3068\u308a": 3057,
  "\u30a4\u30b9\u30e9\u30a8\u30eb\u306e\u738b": 3058,
  "\u30c0": 3059,
  "\u30e4\u30b3\u30d6": 3060,
  "\u5b9a": 3061,
  "\u713c": 3062,
  "\u8015": 3063,
  "\u2581Are": 3064,
  "\u2581broke": 3065,
  "\u2581proud": 3066,
  "\u2581sixth": 3067,
  "\u2581\u304b\u3059\u3081": 3068,
  "\u2581\u30c0\u30cb\u30a8\u30eb": 3069,
  "\u2581\u30de\u30ea\u30e4": 3070,
  "\u2581\u53cb": 3071,
  "\u2581\u821f": 3072,
  "\u2581\u90fd": 3073,
  "\u306e\u4e2d\u304b\u3089": 3074,
  "\u3092\u898b\u305f": 3075,
  "\u30bb\u30e9": 3076,
  "Thus": 3077,
  "\u2581High": 3078,
  "\u2581Midian": 3079,
  "\u2581armies": 3080,
  "\u2581brook": 3081,
  "\u2581following": 3082,
  "\u2581latter": 3083,
  "\u2581met": 3084,
  "\u2581sackcloth": 3085,
  "\u2581vengeance": 3086,
  "\u2581\u30a8\u30ea": 3087,
  "\u2581\u30b5\u30e0\u30bd\u30f3": 3088,
  "\u2581\u30eb\u30d9\u30f3": 3089,
  "\u2581\u53ec": 3090,
  "\u2581\u5831\u3044": 3091,
  "\u2581\u60b2\u3057": 3092,
  "\u2581\u6563\u3089": 3093,
  "\u2581\u6bdb": 3094,
  "\u3068\u3057\u305f": 3095,
  "\u306e\u3088\u3046\u306a": 3096,
  "\u4e2d": 3097,
  "\u4e8c\u3064\u306e": 3098,
  "\u5fc3\u306b": 3099,
  "\u62d2": 3100,
  "\u67b6": 3101,
  "\u6c17": 3102,
  "\u725b": 3103,
  "\u96b7": 3104,
  "five": 3105,
  "\u2581ass": 3106,
  "\u2581grew": 3107,
  "\u2581mourn": 3108,
  "\u2581preach": 3109,
  "\u2581restore": 3110,
  "\u2581\u30e4": 3111,
  "\u2581\u5e8a": 3112,
  "\u2581\u7537\u306e\u5b50": 3113,
  "\u2581\u81ea\u3089": 3114,
  "\u3057\u3066\u306f\u306a\u3089\u306a\u3044": 3115,
  "\u308b\u3053\u3068\u304c\u306a\u3044": 3116,
  "\u30a2\u30d6\u30e9\u30cf\u30e0": 3117,
  "\u8ffd\u3044\u6255": 3118,
  "\u2581Asher": 3119,
  "\u2581Gibeah": 3120,
  "\u2581Herod": 3121,
  "\u2581cursed": 3122,
  "\u2581declared": 3123,
  "\u2581horse": 3124,
  "\u2581thrust": 3125,
  "\u2581vessel": 3126,
  "\u2581\u571f": 3127,
  "\u3068\u3059\u308b": 3128,
  "\u5b58": 3129,
  "\u6642\u4ee3": 3130,
  "\u9006\u3089": 3131,
  "\u2581Balak": 3132,
  "\u2581Ghost": 3133,
  "\u2581forest": 3134,
  "\u2581forgiven": 3135,
  "\u2581multiplied": 3136,
  "\u2581\u3053\u305d": 3137,
  "\u2581\u7d0d\u3081": 3138,
  "\u304b\u305b": 3139,
  "\u304c\u306a\u3044": 3140,
  "\u3057\u3082\u3079": 3141,
  "\u3068\u306a\u308b\u3067\u3042\u308d\u3046": 3142,
  "\u3069": 3143,
  "\u30b2": 3144,
  "\u30b5\u30a6\u30eb": 3145,
  "\u5149": 3146,
  "\u8f1d": 3147,
  "\u967d": 3148,
  "of": 3149,
  "\u2581Shimei": 3150,
  "\u2581afterward": 3151,
  "\u2581staff": 3152,
  "\u2581synagogue": 3153,
  "\u2581tables": 3154,
  "\u2581\u3072\u308c\u4f0f": 3155,
  "\u2581\u30a2\u30e2\u30ea": 3156,
  "\u2581\u5915": 3157,
  "\u2581\u8a93\u3044": 3158,
  "\u306f\u307e\u305f": 3159,
  "\u3086\u3060\u306d": 3160,
  "\u3088\u3046\u306b\u306a\u308b": 3161,
  "\u3092\u9020\u308a": 3162,
  "\u30c0\u30d3\u30c7\u306f": 3163,
  "\u30ce": 3164,
  "\u59ff": 3165,
  "\u6b7b\u306b": 3166,
  "\u2581James": 3167,
  "\u2581beat": 3168,
  "\u2581beauty": 3169,
  "\u2581confounded": 3170,
  "\u2581faint": 3171,
  "\u2581green": 3172,
  "\u2581herself": 3173,
  "\u2581lions": 3174,
  "\u2581palm": 3175,
  "\u2581risen": 3176,
  "\u2581spring": 3177,
  "\u2581traveled": 3178,
  "\u2581\u4eba\u9593": 3179,
  "\u2581\u5c11\u3057": 3180,
  "\u305f\u304b\u3089\u3067\u3042\u308b": 3181,
  "\u306e\u5bb6": 3182,
  "\u4f11": 3183,
  "\u6025\u3044\u3067": 3184,
  "\u8cdc\u7269": 3185,
  "\u9818\u5730": 3186,
  "\u2581Benaiah": 3187,
  "\u2581beautiful": 3188,
  "\u2581distress": 3189,
  "\u2581fig": 3190,
  "\u2581knows": 3191,
  "\u2581rings": 3192,
  "\u2581\u4e03\u5341": 3193,
  "\u3059\u308c\u3070": 3194,
  "\u5168\u4f53": 3195,
  "\u5b9a\u3081": 3196,
  "\u5de5\u4e8b": 3197,
  "\u5e38\u306b": 3198,
  "\u6075\u307f": 3199,
  "\u611b": 3200,
  "\u2581Remember": 3201,
  "\u2581dark": 3202,
  "\u2581exceeding": 3203,
  "\u2581forgotten": 3204,
  "\u2581justified": 3205,
  "\u2581provoke": 3206,
  "\u2581rejected": 3207,
  "\u2581resurrection": 3208,
  "\u2581smoke": 3209,
  "\u2581wherefore": 3210,
  "\u2581\u308f\u305f\u3057\u306f\u307e\u305f": 3211,
  "\u2581\u7267\u8005": 3212,
  "\u3055\u305b\u308b": 3213,
  "\u5974": 3214,
  "\u704c\u796d": 3215,
  "\u2581Issachar": 3216,
  "\u2581Speak": 3217,
  "\u2581bars": 3218,
  "\u2581bondage": 3219,
  "\u2581lands": 3220,
  "\u2581naked": 3221,
  "\u2581weary": 3222,
  "\u2581\u3084\u304c\u3066": 3223,
  "\u2581\u5341\u5b57": 3224,
  "\u2581\u6cd5": 3225,
  "\u3066\u8a00\u308f\u308c\u305f": 3226,
  "\u4e0d\u601d\u8b70": 3227,
  "\u4ed5\u4e8b": 3228,
  "\u53ce": 3229,
  "\u6700": 3230,
  "\u7740\u305b": 3231,
  "\u2581desired": 3232,
  "\u2581office": 3233,
  "\u2581olive": 3234,
  "\u2581search": 3235,
  "\u2581shekel": 3236,
  "\u2581\u3042\u306a\u305f\u306e\u795e": 3237,
  "\u2581\u3046\u3051": 3238,
  "\u2581\u3057\u3081": 3239,
  "\u2581\u30a2\u30cf\u30d6": 3240,
  "\u2581\u30a2\u30d3\u30e1\u30ec\u30af": 3241,
  "\u2581\u50b7": 3242,
  "\u2581\u96a0\u308c": 3243,
  "\u5144\u5f1f\u305f\u3061": 3244,
  "\u7523": 3245,
  "\u2581Make": 3246,
  "\u2581Only": 3247,
  "\u2581afar": 3248,
  "\u2581appear": 3249,
  "\u2581changed": 3250,
  "\u2581fierce": 3251,
  "\u2581multitudes": 3252,
  "\u2581visit": 3253,
  "\u2581\u3059\u3048": 3254,
  "\u2581\u30a2\u30d6\u30e9\u30e0": 3255,
  "\u2581\u606f": 3256,
  "\u3063": 3257,
  "\u3088\u3044": 3258,
  "\u308f\u305b": 3259,
  "\u30bd\u30ed\u30e2\u30f3": 3260,
  "\u30da\u30ea\u30b7\u30c6\u3073\u3068": 3261,
  "\u6cb9": 3262,
  "\u7a4d": 3263,
  "\u8a00\u8449\u3092": 3264,
  "\u98f2": 3265,
  "i": 3266,
  "\u2581Bethlehem": 3267,
  "\u2581cubit": 3268,
  "\u2581fatherless": 3269,
  "\u2581uncircumcised": 3270,
  "\u2581\u3064\u304b\u3055\u3069": 3271,
  "\u2581\u4e89": 3272,
  "\u2581\u4ed6\u56fd": 3273,
  "\u2581\u52e7\u3081": 3274,
  "\u2581\u53eb\u3073": 3275,
  "\u2581\u5c71\u5730": 3276,
  "\u2581\u679c": 3277,
  "\u2581\u738b\u306f": 3278,
  "\u304c\u306a\u304f": 3279,
  "\u308d": 3280,
  "\u30a4\u30a8\u30b9\u3092": 3281,
  "\u4e3b\u306a\u308b\u795e\u306f\u8a00\u308f\u308c\u308b": 3282,
  "\u796d": 3283,
  "\u8db3": 3284,
  "ce": 3285,
  "im": 3286,
  "\u2581Gilgal": 3287,
  "\u2581Isaiah": 3288,
  "\u2581Zechariah": 3289,
  "\u2581goodness": 3290,
  "\u2581innocent": 3291,
  "\u2581thereon": 3292,
  "\u2581\u306e\u3057\u3082\u3079": 3293,
  "\u2581\u5730\u4e0a": 3294,
  "\u2581\u8102\u80aa": 3295,
  "\u306e\u59bb": 3296,
  "\u4e94\u767e": 3297,
  "\u7fbd": 3298,
  "\u8010": 3299,
  "\u8a17": 3300,
  "How": 3301,
  "\u2581eastward": 3302,
  "\u2581fifteen": 3303,
  "\u2581fury": 3304,
  "\u2581spirits": 3305,
  "\u2581tender": 3306,
  "\u2581touch": 3307,
  "\u2581\u30a8\u30d2\u30a6": 3308,
  "\u2581\u30e8\u30d6": 3309,
  "\u2581\u6238": 3310,
  "\u2581\u8a66\u307f": 3311,
  "\u2581\u916c\u6069": 3312,
  "\u2581\u9ad8\u3076": 3313,
  "\u3063\u3066\u3044\u305f": 3314,
  "\u3068\u4e3b\u306f\u8a00\u308f\u308c\u308b": 3315,
  "\u306b\u3088\u308a": 3316,
  "\u3079\u304d": 3317,
  "\u3089\u308c\u3066": 3318,
  "\u500b": 3319,
  "\u6804": 3320,
  "\u98fc": 3321,
  "Is": 3322,
  "\u2581building": 3323,
  "\u2581defile": 3324,
  "\u2581satisfied": 3325,
  "\u2581\u3057\u304b\u3082": 3326,
  "\u2581\u305d\u308c\u305e\u308c": 3327,
  "\u2581\u540c\u69d8": 3328,
  "\u2581\u554f": 3329,
  "\u2581\u672c": 3330,
  "\u2581\u89e6\u308c": 3331,
  "\u2581\u8a89": 3332,
  "\u3059\u307f\u304b": 3333,
  "\u305d\u3053\u3067": 3334,
  "\u306a\u3089\u3073\u306b": 3335,
  "\u306a\u3093\u306e": 3336,
  "\u3092\u53d7\u3051": 3337,
  "\u30d0\u30a2\u30eb": 3338,
  "\u65b9": 3339,
  "\u7363": 3340,
  "\u7d9a\u3051": 3341,
  "\u2581Amaziah": 3342,
  "\u2581Shemaiah": 3343,
  "\u2581arrows": 3344,
  "\u2581desert": 3345,
  "\u2581uncleanness": 3346,
  "\u2581utter": 3347,
  "\u2581vow": 3348,
  "\u2581worked": 3349,
  "\u2581\u304b\u306a": 3350,
  "\u2581\u305d\u306e\u307f": 3351,
  "\u2581\u306a\u3089\u3073": 3352,
  "\u2581\u30a8\u30eb": 3353,
  "\u2581\u7834": 3354,
  "\u2581\u9577\u5b50": 3355,
  "\u304a\u307e\u3048": 3356,
  "\u304b\u3051": 3357,
  "\u305f\u3061\u306f": 3358,
  "\u30cb": 3359,
  "\u4ee4": 3360,
  "\u5a5a": 3361,
  "much": 3362,
  "\u2581Ahaz": 3363,
  "\u2581hearkened": 3364,
  "\u2581sell": 3365,
  "\u2581sow": 3366,
  "\u2581stretch": 3367,
  "\u2581\u5f35": 3368,
  "\u2581\u6a29\u5a01": 3369,
  "Take": 3370,
  "\u2581Sheba": 3371,
  "\u2581assembled": 3372,
  "\u2581empty": 3373,
  "\u2581grieved": 3374,
  "\u2581heal": 3375,
  "\u2581nine": 3376,
  "\u2581rebellious": 3377,
  "\u2581sides": 3378,
  "\u2581tears": 3379,
  "\u306b\u3044\u308b": 3380,
  "\u591a\u304f": 3381,
  "\u5f7c\u306f\u8a00\u3063\u305f": 3382,
  "\u8840": 3383,
  "\u92f3": 3384,
  "\u2581Merari": 3385,
  "\u2581hearing": 3386,
  "\u2581jealousy": 3387,
  "\u2581means": 3388,
  "\u2581refuse": 3389,
  "\u2581shepherds": 3390,
  "\u2581suddenly": 3391,
  "\u2581\u30e2\u30fc\u30bb\u306f": 3392,
  "\u2581\u4fdd": 3393,
  "\u2581\u8155": 3394,
  "\u2581\u88f8": 3395,
  "\u306e\u3092\u898b\u3066": 3396,
  "\u308f\u305f\u3057\u305f\u3061\u3092": 3397,
  "\u4e09": 3398,
  "\u4ee3\u3005": 3399,
  "\u5165\u308c": 3400,
  "\u51fa\u3066": 3401,
  "\u571f": 3402,
  "\u5f8b": 3403,
  "\u805e\u3044\u3066": 3404,
  "Lord": 3405,
  "law": 3406,
  "o": 3407,
  "\u2581Passover": 3408,
  "\u2581counted": 3409,
  "\u2581scatter": 3410,
  "\u2581stumble": 3411,
  "\u2581supplication": 3412,
  "\u2581sware": 3413,
  "\u2581\u30ac\u30ea\u30e9\u30e4": 3414,
  "\u2581\u30d0\u30e9\u30e0": 3415,
  "\u2581\u8352": 3416,
  "\u306a\u306e\u3067\u3042\u308b": 3417,
  "\u3089\u305a": 3418,
  "\u308b\u3053\u3068\u306f\u306a\u3044": 3419,
  "\u30a4\u30b5\u30af": 3420,
  "\u30cd": 3421,
  "\u514d\u308c": 3422,
  "\u5730\u3092": 3423,
  "\u6155": 3424,
  "\u805e\u304d": 3425,
  "\u2581Asaph": 3426,
  "\u2581Oh": 3427,
  "\u2581Seir": 3428,
  "\u2581boards": 3429,
  "\u2581cleansed": 3430,
  "\u2581hungry": 3431,
  "\u2581paths": 3432,
  "\u2581planted": 3433,
  "\u2581shout": 3434,
  "\u2581\u3053\u308f": 3435,
  "\u2581\u306f\u3058\u3081": 3436,
  "\u2581\u30b7\u30b1\u30e0": 3437,
  "\u2581\u5f7c\u3089": 3438,
  "\u2581\u751f\u304b": 3439,
  "\u3042\u306a\u305f\u304c\u305f\u306e\u3046\u3061\u306b": 3440,
  "\u304b\u308c": 3441,
  "\u305d\u308c\u306b": 3442,
  "\u30bf": 3443,
  "\u58f0": 3444,
  "\u9154": 3445,
  "When": 3446,
  "two": 3447,
  "\u2581Not": 3448,
  "\u2581Sarah": 3449,
  "\u2581indignation": 3450,
  "\u2581remove": 3451,
  "\u2581sacrificed": 3452,
  "\u2581substance": 3453,
  "\u2581terror": 3454,
  "\u2581yours": 3455,
  "\u2581\u30a2\u30b5": 3456,
  "\u2581\u4e8c\u767e": 3457,
  "\u2581\u6697": 3458,
  "\u3053\u3046\u3079": 3459,
  "\u3053\u3068\u306f\u306a\u3044": 3460,
  "\u3060\u308d\u3046": 3461,
  "\u306e\u5b50\u3089": 3462,
  "\u306f\u5f7c\u3089\u306b\u8a00\u3063\u305f": 3463,
  "\u3092\u9020\u3063\u305f": 3464,
  "\u59cb\u3081": 3465,
  "\u5ca9": 3466,
  "\u8ff7": 3467,
  "\u2581Fear": 3468,
  "\u2581Gath": 3469,
  "\u2581Lot": 3470,
  "\u2581Tel": 3471,
  "\u2581adultery": 3472,
  "\u2581ashes": 3473,
  "\u2581ephah": 3474,
  "\u2581horn": 3475,
  "\u2581knowest": 3476,
  "\u2581line": 3477,
  "\u2581lords": 3478,
  "\u2581speaketh": 3479,
  "\u2581talked": 3480,
  "\u2581\u3046\u3057\u308d": 3481,
  "\u2581\u304b\u308f\u3044": 3482,
  "\u2581\u5730\u65b9": 3483,
  "\u2581\u7db2": 3484,
  "\u2581\u904e\u8d8a": 3485,
  "\u306e\u4e0b\u306b": 3486,
  "\u3089\u306a\u3044": 3487,
  "\u308c\u308b": 3488,
  "\u30a8\u30eb\u30b5\u30ec\u30e0\u306b": 3489,
  "\u805e\u3044\u305f": 3490,
  "\u2581abide": 3491,
  "\u2581church": 3492,
  "\u2581continual": 3493,
  "\u2581dismayed": 3494,
  "\u2581fruitful": 3495,
  "\u2581language": 3496,
  "\u2581lawful": 3497,
  "\u2581shake": 3498,
  "\u2581shoulder": 3499,
  "\u2581takes": 3500,
  "\u2581virgin": 3501,
  "\u2581\u5144": 3502,
  "\u2581\u91cd\u306d": 3503,
  "\u3055\u3055\u3048": 3504,
  "\u3088\u308d\u3057\u304f": 3505,
  "\u5206": 3506,
  "\u540d": 3507,
  "\u65b0\u3057\u3044": 3508,
  "\u8a00\u3044\u306a\u3055\u3044": 3509,
  "\u99ac": 3510,
  "\";": 3511,
  "ites": 3512,
  "\u2581Heshbon": 3513,
  "\u2581bury": 3514,
  "\u2581chains": 3515,
  "\u2581diligently": 3516,
  "\u2581haste": 3517,
  "\u2581heap": 3518,
  "\u2581listened": 3519,
  "\u2581pursued": 3520,
  "\u2581strife": 3521,
  "\u2581\u307b\u3075": 3522,
  "\u2581\u30a2\u30d6\u30cd\u30eb": 3523,
  "\u2581\u30a4": 3524,
  "\u2581\u4e00\u540c": 3525,
  "\u3059\u307e\u3044": 3526,
  "\u305d\u3053\u304b\u3089": 3527,
  "\u305d\u306e\u6240\u3067": 3528,
  "\u30a8\u30c9\u30e0": 3529,
  "\u4e07\u8ecd\u306e\u4e3b": 3530,
  "\u4e0d\u7fa9": 3531,
  "\u5076\u50cf": 3532,
  "\u52e2": 3533,
  "\u5730\u306f": 3534,
  "\u706b\u796d": 3535,
  "But": 3536,
  "\u2581Gideon": 3537,
  "\u2581brake": 3538,
  "\u2581glorious": 3539,
  "\u2581heavy": 3540,
  "\u2581net": 3541,
  "\u2581palace": 3542,
  "\u2581\u30b1\u30eb\u30d3\u30e0": 3543,
  "\u2581\u30d9\u30c6\u30eb": 3544,
  "\u2581\u30e8\u30a2\u30b7": 3545,
  "\u2581\u30e9\u30d0\u30f3": 3546,
  "\u2581\u8eca": 3547,
  "\u304a\u3089\u308c\u308b": 3548,
  "\u306e\u3042\u308b": 3549,
  "\u30a4\u30a8\u30b9\u306e": 3550,
  "\u52a9\u3051": 3551,
  "\u898b\u3064\u3051": 3552,
  "\u2581Ai": 3553,
  "\u2581Samson": 3554,
  "\u2581Sihon": 3555,
  "\u2581favour": 3556,
  "\u2581oppressed": 3557,
  "\u2581wrong": 3558,
  "\u2581\u30b7\u30d0": 3559,
  "\u2581\u30ec\u30d0\u30ce\u30f3": 3560,
  "\u2581\u82e6\u3057": 3561,
  "\u3005": 3562,
  "\u304b\u305f\u304f\u306a": 3563,
  "\u3059\u304e": 3564,
  "\u3069\u3046\u304b": 3565,
  "\u30c4": 3566,
  "\u4e3b\u306f\u3053\u3046\u4ef0\u305b\u3089\u308c\u308b": 3567,
  "\u4f4f\u307e": 3568,
  "\u534a\u3070": 3569,
  "\u5909\u3048": 3570,
  "\u60a9\u307f": 3571,
  "\u6e80": 3572,
  "\u98df\u3079": 3573,
  "S": 3574,
  "ieth": 3575,
  "\u2581Bring": 3576,
  "\u2581Did": 3577,
  "\u2581Sinai": 3578,
  "\u2581add": 3579,
  "\u2581astray": 3580,
  "\u2581beaten": 3581,
  "\u2581circumcised": 3582,
  "\u2581repent": 3583,
  "\u2581singers": 3584,
  "\u2581statute": 3585,
  "\u2581\u304b\u3048": 3586,
  "\u2581\u30d0\u30e9\u30af": 3587,
  "\u2581\u30d4\u30e9\u30c8": 3588,
  "\u2581\u4e16\u754c": 3589,
  "\u2581\u4e5d": 3590,
  "\u2581\u50cd\u304d": 3591,
  "\u2581\u9999\u67cf": 3592,
  "\u3068\u306a\u3048": 3593,
  "\u3089\u308c\u307e\u3057\u305f": 3594,
  "\u308b\u3053\u3068": 3595,
  "\u5341\u4e8c": 3596,
  "\u6226\u8eca": 3597,
  "\u6c5a\u308c": 3598,
  "\u7528\u610f": 3599,
  "\u77e5\u6075": 3600,
  "\u8352\u308c\u5730": 3601,
  "\u2581Caleb": 3602,
  "\u2581broad": 3603,
  "\u2581chronicles": 3604,
  "\u2581dried": 3605,
  "\u2581eighth": 3606,
  "\u2581fools": 3607,
  "\u2581molten": 3608,
  "\u2581news": 3609,
  "\u2581wealth": 3610,
  "\u2581\u3044\u3061\u3058\u304f": 3611,
  "\u2581\u304a\u304a\u3044": 3612,
  "\u2581\u3057\u304b": 3613,
  "\u2581\u30e8\u30e9\u30e0": 3614,
  "\u2581\u4ef2\u9593": 3615,
  "\u2581\u5009": 3616,
  "\u2581\u7acb\u3061\u3042\u304c": 3617,
  "\u2581\u8a00\u3048": 3618,
  "\u305d\u306e\u3059\u3079\u3066\u306e": 3619,
  "\u306f\u3044\u3063\u3066": 3620,
  "\u3082\u306a\u304f": 3621,
  "\u3092\u653b\u3081": 3622,
  "\u5099": 3623,
  "\u5317": 3624,
  "\u2581Jehoiakim": 3625,
  "\u2581humble": 3626,
  "\u2581mixed": 3627,
  "\u2581profane": 3628,
  "\u2581ships": 3629,
  "\u2581strengthen": 3630,
  "\u2581strengthened": 3631,
  "\u2581treasure": 3632,
  "\u2581\u3064\u3044": 3633,
  "\u2581\u57fa": 3634,
  "\u2581\u805e\u304d": 3635,
  "\u2581\u8349": 3636,
  "\u3042\u304b\u3057": 3637,
  "\u304c\u3088\u3044": 3638,
  "\u306e\u3082\u3068\u306b": 3639,
  "\u3088\u3046\u3068": 3640,
  "\u3088\u308a": 3641,
  "\u30d7": 3642,
  "\u5f01": 3643,
  "\u751f\u6d3b": 3644,
  "\u7aef": 3645,
  "\u9665": 3646,
  "Because": 3647,
  "\u2581Ahaziah": 3648,
  "\u2581H": 3649,
  "\u2581Hamath": 3650,
  "\u2581Jew": 3651,
  "\u2581Turn": 3652,
  "\u2581bitter": 3653,
  "\u2581continue": 3654,
  "\u2581despise": 3655,
  "\u2581folly": 3656,
  "\u2581leprosy": 3657,
  "\u2581passover": 3658,
  "\u2581porch": 3659,
  "\u3042\u3089\u308f\u308c": 3660,
  "\u305b\u305a": 3661,
  "\u306b\u884c\u304d": 3662,
  "\u30a4\u30b9\u30e9\u30a8\u30eb\u306e\u4eba\u3005\u306f": 3663,
  "\u4fe1\u3058": 3664,
  "\u5c06": 3665,
  "\u5fd7": 3666,
  "\u5ff5": 3667,
  "\u6c7a": 3668,
  "\u7763": 3669,
  "\u7b2c": 3670,
  "\u7fa9": 3671,
  "\u8005\u305f\u3061": 3672,
  "\u2581Ramah": 3673,
  "\u2581merciful": 3674,
  "\u2581overlaid": 3675,
  "\u2581rising": 3676,
  "\u2581worshipped": 3677,
  "\u2581\u3042\u3059": 3678,
  "\u2581\u30e8\u30b7\u30e4": 3679,
  "\u2581\u96a3\u308a": 3680,
  "\u2581\u98e2\u3048": 3681,
  "\u3042\u3042": 3682,
  "\u3082\u3046": 3683,
  "\u3082\u3068": 3684,
  "\u30ef": 3685,
  "\u624b\u306b": 3686,
  "\u738b\u304c": 3687,
  "ccording": 3688,
  "ever": 3689,
  "the": 3690,
  "\u2015\u2015": 3691,
  "\u2581Gibeon": 3692,
  "\u2581Her": 3693,
  "\u2581Many": 3694,
  "\u2581Verily": 3695,
  "\u2581best": 3696,
  "\u2581bird": 3697,
  "\u2581circumcision": 3698,
  "\u2581deceit": 3699,
  "\u2581grapes": 3700,
  "\u2581herds": 3701,
  "\u2581instead": 3702,
  "\u2581longer": 3703,
  "\u2581obeyed": 3704,
  "\u2581separate": 3705,
  "\u2581today": 3706,
  "\u2581writing": 3707,
  "\u2581\u3064\u307e\u305a": 3708,
  "\u2581\u306a\u304b": 3709,
  "\u2581\u30c4\u30ed": 3710,
  "\u2581\u4eba\u3005\u306f": 3711,
  "\u2581\u5b50\u725b": 3712,
  "\u2581\u6253\u3061": 3713,
  "\u3042\u307e\u306d\u304f": 3714,
  "\u3068\u3069\u3081": 3715,
  "\u306b\u304a\u3044\u3066": 3716,
  "\u306e\u3088\u3046\u3060": 3717,
  "\u308b\u6642": 3718,
  "\u308f\u308c\u308f\u308c\u3092": 3719,
  "\u3092\u751f\u3093\u3060": 3720,
  "\u30e2\u30fc\u30bb\u306f": 3721,
  "\u5148\u306b": 3722,
  "\u5fc5\u305a": 3723,
  "\u6765": 3724,
  "\u6c34\u3092": 3725,
  "\u7167": 3726,
  "\u77e5\u3063\u3066\u3044\u308b": 3727,
  "\u8972": 3728,
  "\u8b66": 3729,
  "\u9003\u3052\u53bb": 3730,
  "\u9999\u6599": 3731,
  "As": 3732,
  "Where": 3733,
  "teth": 3734,
  "\u2581already": 3735,
  "\u2581belly": 3736,
  "\u2581coast": 3737,
  "\u2581confidence": 3738,
  "\u2581crucified": 3739,
  "\u2581grown": 3740,
  "\u2581least": 3741,
  "\u2581praises": 3742,
  "\u2581rent": 3743,
  "\u2581\u3064\u306a": 3744,
  "\u2581\u30ac\u30c9": 3745,
  "\u2581\u4e8c\u5343": 3746,
  "\u2581\u5e7c\u306a": 3747,
  "\u305d\u308c\u304c": 3748,
  "\u306a\u3057\u9042\u3052": 3749,
  "\u306e\u3046\u3061\u306e": 3750,
  "\u306e\u5b50\u3067\u3042\u308b": 3751,
  "\u4e03": 3752,
  "\u53d6\u308a\u9664": 3753,
  "\u5411": 3754,
  "\u707d": 3755,
  "\u8f1d\u304d": 3756,
  "\u2581Ben": 3757,
  "\u2581Jezreel": 3758,
  "\u2581While": 3759,
  "\u2581abode": 3760,
  "\u2581base": 3761,
  "\u2581birth": 3762,
  "\u2581captives": 3763,
  "\u2581gain": 3764,
  "\u2581goods": 3765,
  "\u2581instruction": 3766,
  "\u2581measures": 3767,
  "\u2581oppression": 3768,
  "\u2581possessed": 3769,
  "\u2581reap": 3770,
  "\u2581rebelled": 3771,
  "\u2581\u3060\u308c\u304c": 3772,
  "\u2581\u7537\u5b50": 3773,
  "\u2581\u9670\u5e9c": 3774,
  "\u304b\u304a\u308a": 3775,
  "\u304b\u6708": 3776,
  "\u3093": 3777,
  "\u30a8": 3778,
  "\u72c2": 3779,
  "\u8001": 3780,
  "\u2581anoint": 3781,
  "\u2581boast": 3782,
  "\u2581comforted": 3783,
  "\u2581count": 3784,
  "\u2581enough": 3785,
  "\u2581letters": 3786,
  "\u2581middle": 3787,
  "\u2581ordinance": 3788,
  "\u2581quiet": 3789,
  "\u2581royal": 3790,
  "\u2581speaks": 3791,
  "\u2581tribute": 3792,
  "\u2581\u3055\u3093": 3793,
  "\u2581\u306a\u3048": 3794,
  "\u2581\u4f1a\u5802": 3795,
  "\u2581\u7dcf\u7763": 3796,
  "\u2581\u9ea6\u7c89": 3797,
  "\u305d\u306e\u3088\u3046\u306b": 3798,
  "\u3064\u3065\u3051": 3799,
  "\u3068\u305d\u306e": 3800,
  "\u306b\u547d\u3058\u3066": 3801,
  "\u306e\u65e5": 3802,
  "\u306e\u9580": 3803,
  "\u308f\u305f\u3057\u305f\u3061\u306b": 3804,
  "\u3092\u3068\u3063\u3066": 3805,
  "\u30d0\u30d3\u30ed\u30f3": 3806,
  "\u51fa\u304b\u3051": 3807,
  "\u5c0f\u7f8a": 3808,
  "\u7272": 3809,
  "\u72a0": 3810,
  "\u7523\u7269": 3811,
  "\u805e\u304f": 3812,
  "\u2581barley": 3813,
  "\u2581beseech": 3814,
  "\u2581caught": 3815,
  "\u2581dew": 3816,
  "\u2581grievous": 3817,
  "\u2581guilty": 3818,
  "\u2581loins": 3819,
  "\u2581mark": 3820,
  "\u2581suffered": 3821,
  "\u2581\u3046\u305b": 3822,
  "\u2581\u30ca\u30d5\u30bf\u30ea": 3823,
  "\u2581\u6b66\u5668": 3824,
  "\u2581\u77e2": 3825,
  "\u3042\u306a\u305f\u306e\u3057\u3082\u3079": 3826,
  "\u304b\u3064\u3066": 3827,
  "\u3055\u3089\u306b": 3828,
  "\u3057\u3066\u304f\u3060\u3055\u3044": 3829,
  "\u305d\u306e\u5b50\u306f": 3830,
  "\u306b\u5bfe\u3059\u308b": 3831,
  "\u3076\u3069\u3046\u9152": 3832,
  "\u4e3b\u3067\u3042\u308b": 3833,
  "\u5de1": 3834,
  "\u5f7c\u5973\u306f": 3835,
  "\u6301\u3061\u7269": 3836,
  "\u6559\u3048": 3837,
  "\u898b\u305f": 3838,
  "\u9577\u8001\u305f\u3061": 3839,
  "\u2581Philip": 3840,
  "\u2581W": 3841,
  "\u2581everything": 3842,
  "\u2581likeness": 3843,
  "\u2581patience": 3844,
  "\u2581posts": 3845,
  "\u2581price": 3846,
  "\u2581proclaim": 3847,
  "\u2581serpent": 3848,
  "\u2581spices": 3849,
  "\u2581sure": 3850,
  "\u2581vows": 3851,
  "\u2581\u3053\u3053\u308d": 3852,
  "\u2581\u30a4\u30b6\u30e4": 3853,
  "\u2581\u30b7\u30e1\u30aa\u30f3": 3854,
  "\u2581\u52dd\u5229": 3855,
  "\u2581\u534a": 3856,
  "\u2581\u5fa1\u5b50": 3857,
  "\u2581\u6065\u3058": 3858,
  "\u2581\u75ab\u75c5": 3859,
  "\u2581\u78ba\u304b": 3860,
  "\u2581\u97f3": 3861,
  "\u3044\u3064\u3082": 3862,
  "\u305f\u304f\u308f\u3048": 3863,
  "\u3092\u898b\u308b": 3864,
  "\u5951\u7d04": 3865,
  "\u65e5\u306b": 3866,
  "\u7570\u90a6\u4eba": 3867,
  "\u88c1": 3868,
  "thrown": 3869,
  "\u2581cleanse": 3870,
  "\u2581determined": 3871,
  "\u2581doctrine": 3872,
  "\u2581issue": 3873,
  "\u2581prevailed": 3874,
  "\u2581punish": 3875,
  "\u2581\u3053\u308c\u304c": 3876,
  "\u2581\u3057\u3070\u3089\u304f": 3877,
  "\u2581\u3084\u308a": 3878,
  "\u2581\u5897": 3879,
  "\u2581\u65ad\u98df": 3880,
  "\u2581\u8056\u66f8": 3881,
  "\u2581\u8fd1\u5bc4": 3882,
  "\u2581\u904e\u304e": 3883,
  "\u304a\u306e\u304a\u306e\u305d\u306e": 3884,
  "\u304b\u308c\u305f": 3885,
  "\u3055\u3042": 3886,
  "\u306b\u306a\u308b": 3887,
  "\u306f\u306a\u3044": 3888,
  "\u307e\u308c": 3889,
  "\u308c\u3070": 3890,
  "\u308f\u305a": 3891,
  "\u5f93\u8005": 3892,
  "\u60b2\u3057\u307f": 3893,
  "\u8005\u306e": 3894,
  "\u9650\u308a": 3895,
  "\u98df": 3896,
  "They": 3897,
  "\u2581Master": 3898,
  "\u2581bosom": 3899,
  "\u2581bulls": 3900,
  "\u2581corners": 3901,
  "\u2581hot": 3902,
  "\u2581ninth": 3903,
  "\u2581purpose": 3904,
  "\u2581wax": 3905,
  "\u2581\u304f\u3073\u304d": 3906,
  "\u2581\u4f4e": 3907,
  "\u2581\u7434": 3908,
  "\u2581\u76fe": 3909,
  "\u3044\u305f\u304c": 3910,
  "\u304a\u3082\u3066": 3911,
  "\u3055\u306a\u3051\u308c\u3070\u306a\u3089\u306a\u3044": 3912,
  "\u305d\u306e\u65e5": 3913,
  "\u3072\u3068\u308a\u3082": 3914,
  "\u308b\u3053\u3068\u3092": 3915,
  "\u5168\u304f": 3916,
  "\u63a5": 3917,
  "\u6cbf": 3918,
  "\u793a\u3057": 3919,
  "\u2581An": 3920,
  "\u2581Obed": 3921,
  "\u2581blow": 3922,
  "\u2581chose": 3923,
  "\u2581deceived": 3924,
  "\u2581deny": 3925,
  "\u2581eighteen": 3926,
  "\u2581making": 3927,
  "\u2581married": 3928,
  "\u2581salt": 3929,
  "\u2581seem": 3930,
  "\u2581\u3072": 3931,
  "\u2581\u30aa\u30ea\u30d6": 3932,
  "\u2581\u30bc\u30d6\u30eb\u30f3": 3933,
  "\u2581\u4e3b\u306f\u30e2\u30fc\u30bb\u306b\u8a00\u308f\u308c\u305f": 3934,
  "\u2581\u5bb3": 3935,
  "\u2581\u5e2f": 3936,
  "\u2581\u661f": 3937,
  "\u2581\u6cc9": 3938,
  "\u304b\u3048\u3063\u3066": 3939,
  "\u3051\u308c\u3069\u3082": 3940,
  "\u30e2\u30fc\u30bb\u3068\u30a2\u30ed\u30f3": 3941,
  "\u4e00\u751f": 3942,
  "\u771f\u7406": 3943,
  "\u77e5\u8b58": 3944,
  "\u795d\u798f": 3945,
  "\u8a9e\u308a": 3946,
  ";)": 3947,
  "\u2581Shiloh": 3948,
  "\u2581afflict": 3949,
  "\u2581greatness": 3950,
  "\u2581loves": 3951,
  "\u2581use": 3952,
  "\u2581\u3044\u3063\u3055\u3044": 3953,
  "\u2581\u52dd": 3954,
  "\u2581\u7d30\u5de5": 3955,
  "\u3042\u306a\u305f\u3068": 3956,
  "\u3053\u3068\u3067\u3042\u308b": 3957,
  "\u306e\u3060\u304b\u3089": 3958,
  "\u306e\u3061": 3959,
  "\u30a8\u30eb\u30b5\u30ec\u30e0\u306e": 3960,
  "\u30d1\u30ed": 3961,
  "\u66f8\u304d\u3057\u308b": 3962,
  "\u679a": 3963,
  "\u8a9e\u3063\u305f": 3964,
  "\u2581Leah": 3965,
  "\u2581Philistine": 3966,
  "\u2581cherubim": 3967,
  "\u2581engrave": 3968,
  "\u2581hired": 3969,
  "\u2581hither": 3970,
  "\u2581lamps": 3971,
  "\u2581mercies": 3972,
  "\u2581\u30a8\u30b9\u30c6\u30eb": 3973,
  "\u2581\u30c0\u30de\u30b9\u30b3": 3974,
  "\u2581\u5e83": 3975,
  "\u2581\u5f13": 3976,
  "\u2581\u767d": 3977,
  "\u2581\u82b1": 3978,
  "\u2581\u9b5a": 3979,
  "\u306e\u8840": 3980,
  "\u3075\u305f\u308a": 3981,
  "\u3080\u3060": 3982,
  "\u30dd": 3983,
  "\u4f55\u3082": 3984,
  "\u5ea7": 3985,
  "\u6c7a\u3057\u3066": 3986,
  "\u6deb": 3987,
  "\u7372\u7269": 3988,
  "\u8ca8": 3989,
  "\u98db": 3990,
  "ers": 3991,
  "\u2581Hilkiah": 3992,
  "\u2581chambers": 3993,
  "\u2581feasts": 3994,
  "\u2581lost": 3995,
  "\u2581messenger": 3996,
  "\u2581mischief": 3997,
  "\u2581reed": 3998,
  "\u2581street": 3999,
  "\u2581taste": 4000,
  "\u2581testified": 4001,
  "\u2581verily": 4002,
  "\u2581wast": 4003,
  "\u2581\u305d\u3070": 4004,
  "\u2581\u59c9\u59b9": 4005,
  "\u2581\u690d\u3048": 4006,
  "\u2581\u7236\u7956": 4007,
  "\u2581\u9ed9": 4008,
  "\u3042\u306a\u305f\u306e\u305f\u3081\u306b": 4009,
  "\u3042\u3089\u3086\u308b": 4010,
  "\u3068\u8a00\u3063\u305f\u306e\u3067": 4011,
  "\u306e\u624b\u304b\u3089": 4012,
  "\u308c\u305f": 4013,
  "\u3092\u611b\u3057": 4014,
  "\u30b5": 4015,
  "\u4fe1\u983c": 4016,
  "\u53eb\u3073": 4017,
  "\u60d1": 4018,
  "\u7e1b": 4019,
  "\u8ad6": 4020,
  "\u96c4\u725b": 4021,
  "A": 4022,
  "\u2581Can": 4023,
  "\u2581Know": 4024,
  "\u2581Sheol": 4025,
  "\u2581asses": 4026,
  "\u2581creep": 4027,
  "\u2581fair": 4028,
  "\u2581flame": 4029,
  "\u2581formed": 4030,
  "\u2581heat": 4031,
  "\u2581kinds": 4032,
  "\u2581loaves": 4033,
  "\u2581remains": 4034,
  "\u2581waited": 4035,
  "\u2581\u3084\u307f": 4036,
  "\u2581\u4e89\u3044": 4037,
  "\u2581\u5168\u4f1a\u8846": 4038,
  "\u2581\u5168\u80fd": 4039,
  "\u2581\u5927\u58f0": 4040,
  "\u2581\u5f1f": 4041,
  "\u3042\u306a\u305f\u306e\u524d\u306b": 4042,
  "\u304b\u305f": 4043,
  "\u3055\u305b\u3066\u304f\u3060\u3055\u3044": 4044,
  "\u3064\u304f": 4045,
  "\u3067\u3059\u304b": 4046,
  "\u3068\u3082\u3057\u3073": 4047,
  "\u306e\u3046\u3061\u3067": 4048,
  "\u306e\u6642": 4049,
  "\u51e6": 4050,
  "\u5e78\u798f": 4051,
  "\u5f37\u3044": 4052,
  "\u7565": 4053,
  "\u8d8a\u3048": 4054,
  "\u8e0a": 4055,
  "an": 4056,
  "\u2581Kohath": 4057,
  "\u2581Some": 4058,
  "\u2581cherubims": 4059,
  "\u2581cross": 4060,
  "\u2581disappointed": 4061,
  "\u2581inhabited": 4062,
  "\u2581residue": 4063,
  "\u2581robe": 4064,
  "\u2581tremble": 4065,
  "\u2581wheels": 4066,
  "\u2581\u3044\u305f\u3060": 4067,
  "\u2581\u307e\u3059\u307e\u3059": 4068,
  "\u2581\u3080\u3061": 4069,
  "\u2581\u59b9": 4070,
  "\u2581\u660e\u3089\u304b": 4071,
  "\u2581\u81ea\u7531": 4072,
  "\u3063\u305f\u306e\u3067": 4073,
  "\u3064\u307e\u305a\u304d": 4074,
  "\u306e\u9593\u306b": 4075,
  "\u307b\u3089\u7a74": 4076,
  "\u3092\u96e2\u308c": 4077,
  "\u51fa\u7acb": 4078,
  "\u5236": 4079,
  "\u524d": 4080,
  "\u6804\u5149": 4081,
  "\u7b11": 4082,
  "\u898b\u308b\u3068": 4083,
  "\u8ca1": 4084,
  "\u983c\u307f": 4085,
  "!'": 4086,
  "Your": 4087,
  "\u2581Lo": 4088,
  "\u2581Say": 4089,
  "\u2581astonished": 4090,
  "\u2581cave": 4091,
  "\u2581donkeys": 4092,
  "\u2581execute": 4093,
  "\u2581hail": 4094,
  "\u2581humbled": 4095,
  "\u2581members": 4096,
  "\u2581report": 4097,
  "\u2581straight": 4098,
  "\u2581terrible": 4099,
  "\u2581wounded": 4100,
  "\u2581\u304a\u304a\u3088\u305d": 4101,
  "\u2581\u3089\u304f\u3060": 4102,
  "\u2581\u5de6": 4103,
  "\u2581\u60a9\u307e": 4104,
  "\u2581\u76f8": 4105,
  "\u2581\u9262": 4106,
  "\u306b\u3064\u3044\u3066\u306f": 4107,
  "\u30e8\u30a2\u30d6": 4108,
  "\u57ce\u58c1": 4109,
  "\u5929\u306b": 4110,
  "\u606f": 4111,
  "\u706b": 4112,
  "\u751f\u304d\u7269": 4113,
  "\u81ea\u3089": 4114,
  "\u82e6\u3057\u307f": 4115,
  "\u9396": 4116,
  "\u2581accuse": 4117,
  "\u2581armed": 4118,
  "\u2581calf": 4119,
  "\u2581eating": 4120,
  "\u2581flood": 4121,
  "\u2581harp": 4122,
  "\u2581nobles": 4123,
  "\u2581silence": 4124,
  "\u2581\u30a8\u30ea\u30b3": 4125,
  "\u2581\u30e2\u30eb": 4126,
  "\u2581\u4f55\u4e8b": 4127,
  "\u304b\u3089\u306f": 4128,
  "\u3057\u3057": 4129,
  "\u3067\u3057\u3087\u3046\u304b": 4130,
  "\u3067\u306f\u3042\u308a\u307e\u305b\u3093\u304b": 4131,
  "\u306e\u5bb6\u306b": 4132,
  "\u3081\u3044\u3081\u3044": 4133,
  "\u4e00\u65cf": 4134,
  "\u4eba\u305f\u3061": 4135,
  "\u5143": 4136,
  "\u51fa\u3066\u304d\u305f": 4137,
  "\u5929\u304b\u3089": 4138,
  "\u6563": 4139,
  "\u6deb\u884c": 4140,
  "\u7d04\u675f": 4141,
  "\u8131": 4142,
  "\u81ea\u5206\u306e\u305f\u3081\u306b": 4143,
  "\u884c\u3046": 4144,
  "\u8d08": 4145,
  "\u90e8\u968a": 4146,
  "\u2581Out": 4147,
  "\u2581accept": 4148,
  "\u2581drunk": 4149,
  "\u2581entrance": 4150,
  "\u2581fed": 4151,
  "\u2581loveth": 4152,
  "\u2581pursue": 4153,
  "\u2581surround": 4154,
  "\u2581willing": 4155,
  "\u2581\u30ae\u30c7\u30aa\u30f3": 4156,
  "\u2581\u4f9b\u3048": 4157,
  "\u2581\u53f0": 4158,
  "\u2581\u56db\u65b9": 4159,
  "\u2581\u5c71\u3005": 4160,
  "\u2581\u7d44": 4161,
  "\u3044\u306a\u3055\u3044": 4162,
  "\u306e\u3059\u3079\u3066\u306e": 4163,
  "\u4f55": 4164,
  "\u4f55\u304b": 4165,
  "\u5185": 4166,
  "\u7acb\u3066": 4167,
  "\u8a00\u8449": 4168,
  "\u8d77": 4169,
  "\u2581Gedaliah": 4170,
  "\u2581Judas": 4171,
  "\u2581Mizpah": 4172,
  "\u2581Rebekah": 4173,
  "\u2581curtains": 4174,
  "\u2581giving": 4175,
  "\u2581learn": 4176,
  "\u2581males": 4177,
  "\u2581separated": 4178,
  "\u2581singing": 4179,
  "\u2581smitten": 4180,
  "\u2581solemn": 4181,
  "\u2581tomb": 4182,
  "\u2581travail": 4183,
  "\u2581walking": 4184,
  "\u2581\u30a2\u30bb\u30eb": 4185,
  "\u2581\u5927\u305c\u3044": 4186,
  "\u2581\u635c": 4187,
  "\u304c\u305d\u306e": 4188,
  "\u3059\u3050": 4189,
  "\u3059\u3079\u3066\u306e\u6c11": 4190,
  "\u306e\u3068\u3053\u308d\u306b": 4191,
  "\u52a9": 4192,
  "\u5983": 4193,
  "\u5b89\u3089\u304b\u306b": 4194,
  "\u6c11\u3092": 4195,
  "\u7533": 4196,
  "\u7537": 4197,
  "\u8005\u3082": 4198,
  "\u975e\u5e38\u306b": 4199,
  "\u98a8": 4200,
  "\u98df\u3079\u308b": 4201,
  ",)": 4202,
  "el": 4203,
  "ll": 4204,
  "\u2581Ahasuerus": 4205,
  "\u2581Korah": 4206,
  "\u2581bands": 4207,
  "\u2581clay": 4208,
  "\u2581either": 4209,
  "\u2581harm": 4210,
  "\u2581inhabitant": 4211,
  "\u2581inquired": 4212,
  "\u2581majesty": 4213,
  "\u2581regard": 4214,
  "\u2581upper": 4215,
  "\u2581worshiped": 4216,
  "\u2581\u30ce\u30a2": 4217,
  "\u2581\u30cf\u30de\u30f3": 4218,
  "\u2581\u500d": 4219,
  "\u2581\u516d\u767e": 4220,
  "\u3068\u540d\u3065\u3051\u305f": 4221,
  "\u30b4": 4222,
  "\u4e3b\u4eba": 4223,
  "\u4e94": 4224,
  "\u5168": 4225,
  "\u5206\u3051\u4e0e\u3048": 4226,
  "\u52c7\u58eb": 4227,
  "\u5668": 4228,
  "\u5f7c\u3089\u306b\u8a00\u3063\u305f": 4229,
  "\u5fc3\u3092": 4230,
  "\u75ab": 4231,
  "\u7d42\u3048": 4232,
  "\u7fa4\u308c": 4233,
  "\u898b\u3066": 4234,
  "\u8eab\u3092": 4235,
  "\u8f09\u305b": 4236,
  "\u2581care": 4237,
  "\u2581foundations": 4238,
  "\u2581furnace": 4239,
  "\u2581haven": 4240,
  "\u2581pity": 4241,
  "\u2581prevail": 4242,
  "\u2581rooms": 4243,
  "\u2581savour": 4244,
  "\u2581shine": 4245,
  "\u2581trembling": 4246,
  "\u2581\u3055\u307e": 4247,
  "\u2581\u30a4\u30b9\u30e9\u30a8\u30eb\u306e\u4eba\u3005\u306f": 4248,
  "\u2581\u4e3b\u541b": 4249,
  "\u2581\u4e95\u6238": 4250,
  "\u2581\u5b9d": 4251,
  "\u2581\u6050\u308b": 4252,
  "\u2581\u6c11\u8846": 4253,
  "\u2581\u6c38\u4e45": 4254,
  "\u2581\u9060\u304f": 4255,
  "\u3055\u306a\u3044": 4256,
  "\u3075\u305f\u308a\u306e": 4257,
  "\u308b\u304c\u3088\u3044": 4258,
  "\u3092\u306a\u3057": 4259,
  "\u30c5": 4260,
  "\u5408": 4261,
  "\u56db": 4262,
  "\u5bb6\u306b": 4263,
  "\u5bc6": 4264,
  "\u5f37\u304f": 4265,
  "\u798f\u97f3": 4266,
  "\u7a74": 4267,
  "\u7b54\u3048": 4268,
  "\u2581Abiathar": 4269,
  "\u2581However": 4270,
  "\u2581Psalm": 4271,
  "\u2581Shaphan": 4272,
  "\u2581abundantly": 4273,
  "\u2581arms": 4274,
  "\u2581conscience": 4275,
  "\u2581drunken": 4276,
  "\u2581endures": 4277,
  "\u2581heritage": 4278,
  "\u2581knees": 4279,
  "\u2581often": 4280,
  "\u2581polluted": 4281,
  "\u2581provinces": 4282,
  "\u2581sealed": 4283,
  "\u2581thanksgiving": 4284,
  "\u2581torn": 4285,
  "\u2581\u30a4\u30c3\u30b5\u30ab\u30eb": 4286,
  "\u2581\u6d88\u3048": 4287,
  "\u2581\u6e2c": 4288,
  "\u2581\u71ed\u53f0": 4289,
  "\u2581\u767b": 4290,
  "\u2581\u9e97\u3057": 4291,
  "\u3053\u306e\u4e8b\u3092": 4292,
  "\u3053\u306e\u753a": 4293,
  "\u305d\u306e\u4e2d\u306b": 4294,
  "\u308f\u304c\u6c11": 4295,
  "\u308f\u306a\u3051\u308c\u3070\u306a\u3089\u306a\u3044": 4296,
  "\u3092\u4e0e\u3048\u308b": 4297,
  "\u30ae\u30ec\u30a2\u30c7": 4298,
  "\u5f7c\u306b\u8a00\u308f\u308c\u305f": 4299,
  "\u7f70": 4300,
  "\u8102": 4301,
  "\u8352\u91ce": 4302,
  "\u2581Barnabas": 4303,
  "\u2581Jeshua": 4304,
  "\u2581Lamb": 4305,
  "\u2581corner": 4306,
  "\u2581excellent": 4307,
  "\u2581floor": 4308,
  "\u2581glorify": 4309,
  "\u2581refused": 4310,
  "\u2581repaired": 4311,
  "\u2581throw": 4312,
  "\u2581\u3044\u3070\u3089": 4313,
  "\u2581\u307e\u3068": 4314,
  "\u2581\u30ab\u30eb\u30c7\u30e4\u3073": 4315,
  "\u2581\u30ec\u30cf\u30d9\u30a2\u30e0": 4316,
  "\u2581\u507d": 4317,
  "\u2581\u82e6\u3057\u3081": 4318,
  "\u3042\u3052": 4319,
  "\u304c\u304d\u3066": 4320,
  "\u305d\u3053": 4321,
  "\u3064\u304b\u3055\u305f\u3061": 4322,
  "\u306b\u304a\u308b": 4323,
  "\u306b\u81f3\u308b": 4324,
  "\u306e\u9053": 4325,
  "\u308d\u3046": 4326,
  "\u308f\u3056": 4327,
  "\u308f\u308c\u308f\u308c\u306b": 4328,
  "\u30a8\u30eb\u30b5\u30ec\u30e0\u3067": 4329,
  "\u53e3": 4330,
  "\u56fa": 4331,
  "\u6551\u3044": 4332,
  "\u74b0": 4333,
  "\u8033": 4334,
  "\u9053\u3092": 4335,
  "\u2581Hittite": 4336,
  "\u2581Joram": 4337,
  "\u2581Put": 4338,
  "\u2581double": 4339,
  "\u2581exalt": 4340,
  "\u2581hardened": 4341,
  "\u2581less": 4342,
  "\u2581memorial": 4343,
  "\u2581plead": 4344,
  "\u2581preserve": 4345,
  "\u2581\u3042\u306a\u305f\u304c\u305f": 4346,
  "\u2581\u305f\u3068\u3044": 4347,
  "\u2581\u30a2\u30a1\u30e1\u30f3": 4348,
  "\u2581\u30df\u30c7\u30a2\u30f3": 4349,
  "\u2581\u30ed\u30c8": 4350,
  "\u2581\u516c\u5e73": 4351,
  "\u2581\u5bae\u6bbf": 4352,
  "\u2581\u8d08\u308a\u7269": 4353,
  "\u3042\u306a\u305f\u304c\u305f\u306e\u305f\u3081\u306b": 4354,
  "\u3053\u3068\u304c\u3067\u304d\u306a\u3044": 4355,
  "\u306b\u4e0e\u3048\u305f": 4356,
  "\u306e\u5b50\u5b6b\u306f": 4357,
  "\u306e\u624b\u306b": 4358,
  "\u3082\u308d\u3082\u308d\u306e\u6c11": 4359,
  "\u308b\u3053\u3068\u306a\u304f": 4360,
  "\u308f\u308c\u3089\u306e": 4361,
  "\u4e0d": 4362,
  "\u4fee": 4363,
  "\u6212\u3081": 4364,
  "\u884c\u304d\u306a\u3055\u3044": 4365,
  "\u8ffd\u3044\u3084": 4366,
  "\u90e8\u5206": 4367,
  "No": 4368,
  "\u2581basket": 4369,
  "\u2581cords": 4370,
  "\u2581corrupt": 4371,
  "\u2581fowls": 4372,
  "\u2581large": 4373,
  "\u2581palaces": 4374,
  "\u2581recompense": 4375,
  "\u2581sand": 4376,
  "\u2581sees": 4377,
  "\u2581spiritual": 4378,
  "\u2581surface": 4379,
  "\u2581threshing": 4380,
  "\u2581\u30a8\u30db\u30e4\u30c0": 4381,
  "\u2581\u60a3\u90e8": 4382,
  "\u2581\u6307": 4383,
  "\u2581\u871c": 4384,
  "\u2581\u9a0e\u5175": 4385,
  "\u3057\u305f\u306e\u3067": 4386,
  "\u306a\u304b\u3063\u305f\u306e\u3067": 4387,
  "\u306a\u304f\u306a": 4388,
  "\u3084\u307f": 4389,
  "\u3092\u5f97": 4390,
  "\u3092\u751f\u307f": 4391,
  "\u5c11\u306a": 4392,
  "\u6551\u308f\u308c\u308b": 4393,
  "\u6559": 4394,
  "\u7d0d": 4395,
  "\u8a08\u753b": 4396,
  "\u2581Micah": 4397,
  "\u2581branch": 4398,
  "\u2581dwelleth": 4399,
  "\u2581testimonies": 4400,
  "\u2581\u305d\u305d": 4401,
  "\u2581\u3061\u307e\u305f": 4402,
  "\u2581\u3072\u3068": 4403,
  "\u2581\u30d0\u30b7\u30e3\u30f3": 4404,
  "\u2581\u5805\u56fa": 4405,
  "\u2581\u6226\u4e89": 4406,
  "\u2581\u805e\u3051": 4407,
  "\u3044\u306e\u3061": 4408,
  "\u3060\u308c": 4409,
  "\u306a\u308a": 4410,
  "\u306e\u3067\u306f\u306a\u3044": 4411,
  "\u306e\u306a\u3044": 4412,
  "\u306e\u524d": 4413,
  "\u30a2\u30d6\u30b5\u30ed\u30e0": 4414,
  "\u5be1": 4415,
  "\u5c0a\u3044": 4416,
  "\u5de3": 4417,
  "\u6050": 4418,
  "\u65e8": 4419,
  "\u6df7": 4420,
  "a": 4421,
  "\u2581Elam": 4422,
  "\u2581Nun": 4423,
  "\u2581Sing": 4424,
  "\u2581Uriah": 4425,
  "\u2581countenance": 4426,
  "\u2581disciple": 4427,
  "\u2581endureth": 4428,
  "\u2581perceived": 4429,
  "\u2581pertain": 4430,
  "\u2581porters": 4431,
  "\u2581render": 4432,
  "\u2581talk": 4433,
  "\u2581truly": 4434,
  "\u2581\u305d\u3093\u306a": 4435,
  "\u2581\u677f": 4436,
  "\u2581\u67a0": 4437,
  "\u2581\u898b\u305b": 4438,
  "\u3053\u3068\u304c\u3067\u304d\u308b": 4439,
  "\u305f\u306e\u3067\u3042\u308b": 4440,
  "\u306a\u3044\u3067": 4441,
  "\u306e\u524d\u304b\u3089": 4442,
  "\u3081\u3050\u3089": 4443,
  "\u3092\u3057": 4444,
  "\u3092\u5f97\u308b": 4445,
  "\u30a2\u30e2\u30ea\u3073\u3068": 4446,
  "\u4e00\u982d": 4447,
  "\u4e3b\u306e\u5bae": 4448,
  "\u5360": 4449,
  "\u53b3": 4450,
  "\u5c0b\u306d": 4451,
  "\u738b\u305f\u3061": 4452,
  "\u7559": 4453,
  "\u98fd": 4454,
  "\u2581Jephthah": 4455,
  "\u2581anointing": 4456,
  "\u2581avenge": 4457,
  "\u2581bringing": 4458,
  "\u2581households": 4459,
  "\u2581hundreds": 4460,
  "\u2581punishment": 4461,
  "\u2581seal": 4462,
  "\u2581soldiers": 4463,
  "\u2581\u3044\u308c": 4464,
  "\u2581\u304a\u3068\u3081": 4465,
  "\u2581\u3059\u307f\u3084\u304b": 4466,
  "\u2581\u30b6\u30c9\u30af": 4467,
  "\u2581\u4e00\u5343": 4468,
  "\u2581\u5148\u751f": 4469,
  "\u304b\u308c\u308b": 4470,
  "\u3055\u304d\u306b": 4471,
  "\u3055\u308c\u3066": 4472,
  "\u3057\u308b\u3057": 4473,
  "\u3076\u3069\u3046": 4474,
  "\u307b\u3069": 4475,
  "\u308b\u304b\u3089\u3067\u3042\u308b": 4476,
  "\u4e3b\u306f\u8a00\u308f\u308c\u308b": 4477,
  "\u4e3b\u3092": 4478,
  "\u4f55\u3092": 4479,
  "\u5668\u7269": 4480,
  "\u56fd\u306b": 4481,
  "\u5fdc": 4482,
  "\u6d3b": 4483,
  "\u71d4\u796d": 4484,
  "There": 4485,
  "\u2581Amnon": 4486,
  "\u2581Baasha": 4487,
  "\u2581Caesar": 4488,
  "\u2581Egyptian": 4489,
  "\u2581M": 4490,
  "\u2581Uzziah": 4491,
  "\u2581cherub": 4492,
  "\u2581deceive": 4493,
  "\u2581holiness": 4494,
  "\u2581sown": 4495,
  "\u2581windows": 4496,
  "\u2581younger": 4497,
  "\u2581\u3042\u305a\u304b": 4498,
  "\u2581\u30a2\u30b6\u30ea\u30e4": 4499,
  "\u2581\u30e9\u30b1\u30eb": 4500,
  "\u2581\u4e16\u3005": 4501,
  "\u2581\u4e4f\u3057": 4502,
  "\u2581\u5168\u56fd": 4503,
  "\u2581\u56db\u767e": 4504,
  "\u2581\u6483\u3061": 4505,
  "\u2581\u6839": 4506,
  "\u3042\u306a\u305f\u306e\u7236": 4507,
  "\u305d\u306e\u540d\u3092": 4508,
  "\u306e\u5730": 4509,
  "\u3073\u3068\u306e\u6c0f\u65cf\u304c\u51fa": 4510,
  "\u3075\u3055\u308f\u3057": 4511,
  "\u5973\u306f": 4512,
  "\u5e7c\u306a\u5b50": 4513,
  "\u5fc3\u306e": 4514,
  "\u6271": 4515,
  "\u76ee\u306b": 4516,
  "\u932c": 4517,
  "\u984d": 4518,
  "\u2581Hananiah": 4519,
  "\u2581breasts": 4520,
  "\u2581gracious": 4521,
  "\u2581oppress": 4522,
  "\u2581pledge": 4523,
  "\u2581provoked": 4524,
  "\u2581trusted": 4525,
  "\u2581uncover": 4526,
  "\u2581\u3078\u3073": 4527,
  "\u2581\u307e\u3044": 4528,
  "\u2581\u30d8\u30ed\u30c7": 4529,
  "\u2581\u58c1": 4530,
  "\u2581\u8056\u8005": 4531,
  "\u3044\u3051\u306b\u3048": 4532,
  "\u3064\u308b\u304e\u3092\u3082\u3063\u3066": 4533,
  "\u306e\u753a": 4534,
  "\u3082\u306a\u3044": 4535,
  "\u30ad\u30ea\u30b9\u30c8\u306e": 4536,
  "\u4e09\u5343": 4537,
  "\u4e73\u9999": 4538,
  "\u4eba\u305f\u3061\u306f": 4539,
  "\u5012\u308c\u308b": 4540,
  "\u53ca\u3073": 4541,
  "\u56fd\u3005": 4542,
  "\u5bdd": 4543,
  "\u7740": 4544,
  "\u7a2e": 4545,
  "\u7d2b\u7cf8": 4546,
  "\u7d76\u3048\u305a": 4547,
  "\u7dcb\u7cf8": 4548,
  "\u89aa\u65cf": 4549,
  "\u8a98": 4550,
  "\u9000\u3051": 4551,
  "\u9078": 4552,
  "\u91d1\u306e": 4553,
  "\u9854\u3092": 4554,
  "\u2581Persia": 4555,
  "\u2581crying": 4556,
  "\u2581lieth": 4557,
  "\u2581pluck": 4558,
  "\u2581release": 4559,
  "\u2581seeth": 4560,
  "\u2581springs": 4561,
  "\u2581understood": 4562,
  "\u2581valiant": 4563,
  "\u2581\u30a2\u30de\u30b8\u30e4": 4564,
  "\u2581\u30ca\u30bf\u30f3": 4565,
  "\u2581\u5f85\u3061\u671b": 4566,
  "\u2581\u5fa1\u8a00": 4567,
  "\u2581\u6298": 4568,
  "\u2581\u71b1": 4569,
  "\u2581\u7834\u308c": 4570,
  "\u2581\u8ca1\u7523": 4571,
  "\u2581\u964d": 4572,
  "\u304b\u3089\u51fa\u3066": 4573,
  "\u304d\u306a\u3055\u3044": 4574,
  "\u305f\u3068\u304d": 4575,
  "\u306a\u3051\u308c\u3070": 4576,
  "\u306c": 4577,
  "\u3089\u306f": 4578,
  "\u30ae": 4579,
  "\u5ead": 4580,
  "\u67f1": 4581,
  "\u7a6b": 4582,
  "\u9ad8\u304f": 4583,
  "\u9ec4": 4584,
  "\u2581Hebrew": 4585,
  "\u2581Levite": 4586,
  "\u2581Saying": 4587,
  "\u2581bonds": 4588,
  "\u2581borne": 4589,
  "\u2581charged": 4590,
  "\u2581council": 4591,
  "\u2581course": 4592,
  "\u2581endure": 4593,
  "\u2581pain": 4594,
  "\u2581path": 4595,
  "\u2581restored": 4596,
  "\u2581storm": 4597,
  "\u2581veil": 4598,
  "\u2581westward": 4599,
  "\u2581woe": 4600,
  "\u2581\u30d9\u30c4\u30ec\u30d8\u30e0": 4601,
  "\u2581\u60d1\u308f": 4602,
  "\u2581\u6697\u3084\u307f": 4603,
  "\u2581\u71b1\u5fc3": 4604,
  "\u3057\u3066\u3044\u305f": 4605,
  "\u306f\u5f7c\u3089": 4606,
  "\u307e\u3059\u307e\u3059": 4607,
  "\u3084\u308a": 4608,
  "\u30be": 4609,
  "\u30e2\u30a2\u30d6": 4610,
  "\u6642\u306b\u306f": 4611,
  "\u7acb\u3064": 4612,
  "\u7d20\u796d": 4613,
  "\u8352\u91ce\u306b": 4614,
  "\u8a66": 4615,
  "\u8a93\u3044": 4616,
  ").": 4617,
  "\u2581Kadesh": 4618,
  "\u2581Ramoth": 4619,
  "\u2581adversary": 4620,
  "\u2581bad": 4621,
  "\u2581beheld": 4622,
  "\u2581boat": 4623,
  "\u2581breastplate": 4624,
  "\u2581ceased": 4625,
  "\u2581coat": 4626,
  "\u2581disobedience": 4627,
  "\u2581lack": 4628,
  "\u2581lame": 4629,
  "\u2581ordained": 4630,
  "\u2581remembrance": 4631,
  "\u2581shown": 4632,
  "\u2581thirst": 4633,
  "\u2581twent": 4634,
  "\u2581workers": 4635,
  "\u2581\u306e\u308d\u3044": 4636,
  "\u2581\u30a8\u30c3\u30b5\u30a4": 4637,
  "\u2581\u30bd\u30c9\u30e0": 4638,
  "\u2581\u5e55": 4639,
  "\u2581\u5f62": 4640,
  "\u2581\u5fc5\u8981": 4641,
  "\u2581\u8179": 4642,
  "\u2581\u9589\u3058": 4643,
  "\u3042\u306a\u305f\u304c\u305f\u3068": 4644,
  "\u3042\u306a\u305f\u304c\u305f\u3082": 4645,
  "\u3068\u306e": 4646,
  "\u306e\u738b": 4647,
  "\u3092\u6bba\u3057\u305f": 4648,
  "\u4e00\u7dd2\u306b": 4649,
  "\u5148\u751f": 4650,
  "\u5e83\u304c": 4651,
  "\u5f97\u305f": 4652,
  "\u5fa1\u540d": 4653,
  "\u609f\u308a": 4654,
  "\u65b0": 4655,
  "\u6b63\u3057\u304f": 4656,
  "\u81ea\u5206\u3067": 4657,
  "\u2581Shallum": 4658,
  "\u2581contend": 4659,
  "\u2581drawn": 4660,
  "\u2581front": 4661,
  "\u2581raiment": 4662,
  "\u2581ride": 4663,
  "\u2581tear": 4664,
  "\u2581transgressed": 4665,
  "\u2581widows": 4666,
  "\u2581\u3042\u3056\u3051": 4667,
  "\u2581\u306a\u306b\u3086\u3048": 4668,
  "\u2581\u30a2\u30cf\u30b8\u30e4": 4669,
  "\u2581\u30a8\u30d1": 4670,
  "\u2581\u30a8\u30ec\u30a2\u30b6\u30eb": 4671,
  "\u2581\u30b7\u30e1\u30a4": 4672,
  "\u2581\u4e09\u767e": 4673,
  "\u2581\u5bc4\u308a": 4674,
  "\u2581\u65cf\u9577": 4675,
  "\u2581\u6b6f": 4676,
  "\u3053\u306e\u3088\u3046\u306a": 4677,
  "\u305d\u306e\u795e": 4678,
  "\u306b\u306a\u308a": 4679,
  "\u306b\u4f4f\u307f": 4680,
  "\u306e\u3054\u3068\u304f": 4681,
  "\u306e\u540d\u306f": 4682,
  "\u308b\u3053\u3068\u306f": 4683,
  "\u4e0a\u3063\u3066": 4684,
  "\u4e8c\u5341": 4685,
  "\u4e94\u5343": 4686,
  "\u4ed5\u3048": 4687,
  "\u5149\u6804": 4688,
  "\u559c\u3093\u3067": 4689,
  "\u5c3d\u304d": 4690,
  "\u6765\u305f": 4691,
  "\u69d8": 4692,
  "\u6b8b": 4693,
  "\u7121": 4694,
  "\u795e\u306e\u56fd": 4695,
  "\u796d\u53f8\u305f\u3061": 4696,
  "\u898f": 4697,
  "\u2581Johanan": 4698,
  "\u2581Macedonia": 4699,
  "\u2581Tarshish": 4700,
  "\u2581bright": 4701,
  "\u2581change": 4702,
  "\u2581courts": 4703,
  "\u2581demons": 4704,
  "\u2581drank": 4705,
  "\u2581dung": 4706,
  "\u2581eateth": 4707,
  "\u2581helped": 4708,
  "\u2581herd": 4709,
  "\u2581mingled": 4710,
  "\u2581store": 4711,
  "\u2581valleys": 4712,
  "\u2581void": 4713,
  "\u2581\u3042\u3051": 4714,
  "\u2581\u3046\u3044": 4715,
  "\u2581\u305d\u306e\u3053\u308d": 4716,
  "\u2581\u30b5\u30e9": 4717,
  "\u2581\u7344": 4718,
  "\u2581\u75b2\u308c": 4719,
  "\u3053\u3046\u8a00\u308f\u308c\u308b": 4720,
  "\u3053\u308c\u3089": 4721,
  "\u3055\u3048": 4722,
  "\u306e\u5b50\u306f": 4723,
  "\u306e\u8a00\u8449": 4724,
  "\u3075\u3048": 4725,
  "\u307e\u305b\u3093\u3067\u3057\u305f": 4726,
  "\u3089\u308c\u308b\u3067\u3042\u308d\u3046": 4727,
  "\u308f\u305f\u3057\u305f\u3061\u306e\u4e3b\u30a4\u30a8\u30b9": 4728,
  "\u50b7": 4729,
  "\u5144\u5f1f\u305f\u3061\u3088": 4730,
  "\u52d5\u304b": 4731,
  "\u5357": 4732,
  "\u5728": 4733,
  "\u5b89\u5168": 4734,
  "\u5c4b": 4735,
  "\u5e30": 4736,
  "\u5f53": 4737,
  "\u6170\u3081": 4738,
  "\u6642\u306b": 4739,
  "\u76db": 4740,
  "\u8005\u3069\u3082": 4741,
  "\u8981\u5bb3": 4742,
  "\u2581Adam": 4743,
  "\u2581Hav": 4744,
  "\u2581Unt": 4745,
  "\u2581allow": 4746,
  "\u2581chamber": 4747,
  "\u2581desires": 4748,
  "\u2581devils": 4749,
  "\u2581due": 4750,
  "\u2581fortified": 4751,
  "\u2581goodly": 4752,
  "\u2581subject": 4753,
  "\u2581thank": 4754,
  "\u2581transgression": 4755,
  "\u2581wages": 4756,
  "\u2581\u3069\u3046\u3057\u3066": 4757,
  "\u2581\u30a8\u30dd\u30c7": 4758,
  "\u2581\u4f38\u3070": 4759,
  "\u2581\u571f\u5730": 4760,
  "\u2581\u6355": 4761,
  "\u2581\u904a\u5973": 4762,
  "\u3042\u3089\u304b\u3058\u3081": 4763,
  "\u305d\u306e\u5730": 4764,
  "\u305d\u306e\u5bb6": 4765,
  "\u306b\u3042\u3063\u3066": 4766,
  "\u306b\u5c5e\u3059\u308b": 4767,
  "\u307b\u3048": 4768,
  "\u3086\u3048\u306b": 4769,
  "\u3089\u304f\u3060": 4770,
  "\u308f\u304d\u307e\u3048": 4771,
  "\u308f\u305f\u3057\u3068": 4772,
  "\u308f\u308c\u305f": 4773,
  "\u3092\u6368\u3066": 4774,
  "\u30b5\u30a6\u30eb\u306f": 4775,
  "\u30bd": 4776,
  "\u30ea\u30e4": 4777,
  "\u51fa\u4f1a": 4778,
  "\u6574\u3048": 4779,
  "\u751f": 4780,
  "\u7570\u306a": 4781,
  "\u793c": 4782,
  "\u7981": 4783,
  "\u8a87": 4784,
  "\u8d77\u308b": 4785,
  "\u91ce": 4786,
  "\u97ff": 4787,
  "and": 4788,
  "\u2581Hadad": 4789,
  "\u2581Tamar": 4790,
  "\u2581anguish": 4791,
  "\u2581beneath": 4792,
  "\u2581cakes": 4793,
  "\u2581divisions": 4794,
  "\u2581flow": 4795,
  "\u2581graven": 4796,
  "\u2581heareth": 4797,
  "\u2581lamentation": 4798,
  "\u2581obtained": 4799,
  "\u2581performed": 4800,
  "\u2581shaken": 4801,
  "\u2581silent": 4802,
  "\u2581swift": 4803,
  "\u2581\u3042\u308c": 4804,
  "\u2581\u305d\u306e\u5f8c": 4805,
  "\u2581\u3081\u3050": 4806,
  "\u2581\u30ae\u30d9\u30aa\u30f3": 4807,
  "\u2581\u30bc\u30ab\u30ea\u30e4": 4808,
  "\u2581\u57ce": 4809,
  "\u2581\u5fe0\u5b9f": 4810,
  "\u2581\u67af\u308c": 4811,
  "\u2581\u7fa9\u4eba": 4812,
  "\u3042\u3089\u308f\u3057": 4813,
  "\u3068\u3082": 4814,
  "\u3068\u7b54\u3048\u305f": 4815,
  "\u306a\u3044\u306e\u304b": 4816,
  "\u30b5\u30de\u30ea\u30e4": 4817,
  "\u30de\u30ca\u30bb": 4818,
  "\u4e0a\u308a": 4819,
  "\u4e0b\u3063\u3066": 4820,
  "\u4f1a\u8846": 4821,
  "\u53d6": 4822,
  "\u540c\u3058": 4823,
  "\u5b88": 4824,
  "\u5b9a\u3081\u3068": 4825,
  "\u6b20": 4826,
  "\u6b4c": 4827,
  "\u6c11\u306e": 4828,
  "\u78ba\u4fe1": 4829,
  "\u9810\u8a00\u8005\u305f\u3061": 4830,
  "hief": 4831,
  "\u2581En": 4832,
  "\u2581Musician": 4833,
  "\u2581Zeruiah": 4834,
  "\u2581beg": 4835,
  "\u2581creature": 4836,
  "\u2581finger": 4837,
  "\u2581lower": 4838,
  "\u2581ministered": 4839,
  "\u2581overtake": 4840,
  "\u2581play": 4841,
  "\u2581played": 4842,
  "\u2581red": 4843,
  "\u2581sepulchre": 4844,
  "\u2581thief": 4845,
  "\u2581threw": 4846,
  "\u2581withered": 4847,
  "\u2581\u3078\u3084": 4848,
  "\u2581\u3084\u3050\u3089": 4849,
  "\u2581\u795e\u6bbf": 4850,
  "\u2581\u7fcc\u65e5": 4851,
  "\u2581\u9aea": 4852,
  "\u304a\u3053\u306a\u3063\u305f": 4853,
  "\u304d\u304d\u3093": 4854,
  "\u306b\u544a\u3052\u3066": 4855,
  "\u306e\u753a\u3005": 4856,
  "\u30e6\u30c0\u306e": 4857,
  "\u4eba\u3005\u3092": 4858,
  "\u4eca\u306f": 4859,
  "\u50d5": 4860,
  "\u53d7": 4861,
  "\u5b89\u606f\u65e5": 4862,
  "\u5b9a\u3081\u3089\u308c\u305f": 4863,
  "\u5ea6": 4864,
  "\u6065": 4865,
  "\u8352\u91ce\u3067": 4866,
  "\u8e0f\u307f\u3064\u3051": 4867,
  "\u9053\u306b": 4868,
  "\u9999\u3070\u3057": 4869,
  "\u2581aloud": 4870,
  "\u2581begin": 4871,
  "\u2581form": 4872,
  "\u2581hanged": 4873,
  "\u2581lodge": 4874,
  "\u2581merchants": 4875,
  "\u2581perpetual": 4876,
  "\u2581province": 4877,
  "\u2581seas": 4878,
  "\u2581secretly": 4879,
  "\u2581showed": 4880,
  "\u2581summer": 4881,
  "\u2581uttermost": 4882,
  "\u2581\u305a\u3064": 4883,
  "\u2581\u305d\u306e\u65e5\u306b\u306f": 4884,
  "\u2581\u30a4\u30b7\u30de\u30a8\u30eb": 4885,
  "\u2581\u30b5\u30a6\u30eb\u306f": 4886,
  "\u2581\u30b5\u30bf\u30f3": 4887,
  "\u2581\u66f8\u304d": 4888,
  "\u2581\u9ad8\u3076\u308a": 4889,
  "\u3054\u3068\u306b": 4890,
  "\u3066\u3057\u307e\u3063\u305f": 4891,
  "\u306e\u5b50\u305f\u3061": 4892,
  "\u306f\u3042\u306a\u305f": 4893,
  "\u306f\u5f7c": 4894,
  "\u3075\u3068\u3053\u308d": 4895,
  "\u308b\u305f\u3081\u3067\u3042\u308b": 4896,
  "\u308f\u305f\u3057\u306e\u6c11": 4897,
  "\u308f\u308c\u308f\u308c\u304c": 4898,
  "\u30ba": 4899,
  "\u4e3b\u30a4\u30a8\u30b9": 4900,
  "\u544a\u3052": 4901,
  "\u5929\u5e55": 4902,
  "\u6c11\u306b": 4903,
  "\u707d\u3092": 4904,
  "\u738b\u3088": 4905,
  "\u79d8": 4906,
  "\u81ea\u5206\u305f\u3061\u306e": 4907,
  "\u91cd\u306d\u3066": 4908,
  "\u9577\u304f": 4909,
  "\u2581Jonah": 4910,
  "\u2581dies": 4911,
  "\u2581hears": 4912,
  "\u2581jewels": 4913,
  "\u2581mean": 4914,
  "\u2581oracle": 4915,
  "\u2581perished": 4916,
  "\u2581praised": 4917,
  "\u2581require": 4918,
  "\u2581stirred": 4919,
  "\u2581thigh": 4920,
  "\u2581weapons": 4921,
  "\u2581\u3072\u305d\u304b": 4922,
  "\u2581\u30d8\u30b7\u30dc\u30f3": 4923,
  "\u2581\u52a0\u308f": 4924,
  "\u2581\u6700\u5f8c": 4925,
  "\u2581\u77e5\u8005": 4926,
  "\u2581\u8f2a": 4927,
  "\u2581\u8fd1\u304f": 4928,
  "\u306e\u304c\u308c": 4929,
  "\u306e\u3092\u898b\u305f": 4930,
  "\u306e\u4e0a": 4931,
  "\u308f\u306a\u3044": 4932,
  "\u30a8\u30b8\u30d7\u30c8\u3073\u3068": 4933,
  "\u30b7\u30aa\u30f3": 4934,
  "\u30c0\u30d3\u30c7\u306e": 4935,
  "\u30da\u30c6\u30ed": 4936,
  "\u4e03\u767e": 4937,
  "\u5408\u308f\u305b\u3066": 4938,
  "\u5bdb": 4939,
  "\u72b6": 4940,
  "\u7740\u7269": 4941,
  "\u8003\u3048": 4942,
  "\u8eca": 4943,
  "es": 4944,
  "\u2581Abishai": 4945,
  "\u2581Boaz": 4946,
  "\u2581Ezra": 4947,
  "\u2581Meshullam": 4948,
  "\u2581causes": 4949,
  "\u2581close": 4950,
  "\u2581coasts": 4951,
  "\u2581continued": 4952,
  "\u2581divers": 4953,
  "\u2581eagle": 4954,
  "\u2581guide": 4955,
  "\u2581lots": 4956,
  "\u2581snow": 4957,
  "\u2581spoiled": 4958,
  "\u2581\u30a8": 4959,
  "\u2581\u7159": 4960,
  "\u3059\u308b\u3067\u3042\u308d\u3046": 4961,
  "\u305d\u306e\u6c11": 4962,
  "\u305d\u306e\u7236": 4963,
  "\u305f\u6642": 4964,
  "\u306f\u7b54\u3048\u3066": 4965,
  "\u307b\u304b\u306b": 4966,
  "\u307e\u3048": 4967,
  "\u307e\u305f\u305d\u306e": 4968,
  "\u3092\u3057\u305f": 4969,
  "\u30a2\u30e9\u30d0": 4970,
  "\u30a2\u30ed\u30f3": 4971,
  "\u30a8\u30ea\u30e4": 4972,
  "\u30e8\u30cf\u30cd": 4973,
  "\u30e8\u30eb\u30c0\u30f3": 4974,
  "\u4ee3": 4975,
  "\u53d6\u3063\u3066": 4976,
  "\u57df": 4977,
  "\u5f37": 4978,
  "\u5f7c\u3089\u306e\u305f\u3081\u306b": 4979,
  "\u652f": 4980,
  "\u6804\u3048": 4981,
  "\u8005\u3068": 4982,
  "\u81ea": 4983,
  "Before": 4984,
  "ai": 4985,
  "al": 4986,
  "ting": 4987,
  "\u2581Arnon": 4988,
  "\u2581Baruch": 4989,
  "\u2581Nebat": 4990,
  "\u2581air": 4991,
  "\u2581boy": 4992,
  "\u2581builded": 4993,
  "\u2581business": 4994,
  "\u2581choice": 4995,
  "\u2581curtain": 4996,
  "\u2581eunuchs": 4997,
  "\u2581faithfulness": 4998,
  "\u2581lamp": 4999,
  "\u2581moreover": 5000,
  "\u2581steal": 5001,
  "\u2581visions": 5002,
  "\u2581\u304a\u306e\u306e": 5003,
  "\u2581\u3055\u308f": 5004,
  "\u2581\u3061\u3087\u3046\u3069": 5005,
  "\u2581\u30a2\u30cf\u30ba": 5006,
  "\u2581\u5144\u5f1f\u305f\u3061\u3088": 5007,
  "\u2581\u6df7\u305c": 5008,
  "\u2581\u76f2\u4eba": 5009,
  "\u2581\u80a5\u3048": 5010,
  "\u2581\u8feb\u5bb3": 5011,
  "\u3042\u3044\u3055\u3064": 5012,
  "\u304c\u5f7c": 5013,
  "\u305d\u306e\u6642": 5014,
  "\u3068\u3092\u3082\u3063\u3066": 5015,
  "\u306d": 5016,
  "\u306e\u307f": 5017,
  "\u308b\u3053\u3068\u304c\u3067\u304d\u308b": 5018,
  "\u308f\u3056\u3068": 5019,
  "\u308f\u305f\u3057\u306f\u3042\u306a\u305f": 5020,
  "\u3092\u77e5\u3089\u306a\u3044": 5021,
  "\u547c\u3073\u5bc4\u305b": 5022,
  "\u5584": 5023,
  "\u5916": 5024,
  "\u5bae\u306e": 5025,
  "\u5bb9": 5026,
  "\u6bba\u3057": 5027,
  "\u6bba\u3057\u305f": 5028,
  "\u6fc0\u3057\u304f": 5029,
  "\u8005\u306b": 5030,
  "\u96f2": 5031,
  "\u9ad8\u304d\u6240": 5032,
  "\u2581Abel": 5033,
  "\u2581Darius": 5034,
  "\u2581Lachish": 5035,
  "\u2581May": 5036,
  "\u2581condemn": 5037,
  "\u2581confusion": 5038,
  "\u2581duty": 5039,
  "\u2581eleven": 5040,
  "\u2581fourteen": 5041,
  "\u2581occasion": 5042,
  "\u2581pasture": 5043,
  "\u2581preaching": 5044,
  "\u2581precepts": 5045,
  "\u2581proclaimed": 5046,
  "\u2581synagogues": 5047,
  "\u2581\u306d\u305f\u307f": 5048,
  "\u2581\u3075\u3055": 5049,
  "\u2581\u307e\u3053\u3068\u306b": 5050,
  "\u2581\u308f\u305f\u3057\u306f\u3042\u306a\u305f\u306e": 5051,
  "\u2581\u30ae\u30d9\u30a2": 5052,
  "\u2581\u708e": 5053,
  "\u2581\u7d14\u91d1": 5054,
  "\u2581\u888b": 5055,
  "\u2581\u9663\u55b6": 5056,
  "\u2581\u96a3\u4eba": 5057,
  "\u305f\u3068\u3044": 5058,
  "\u306f\u3057\u305f\u3081": 5059,
  "\u3089\u308c\u306a\u3044": 5060,
  "\u308b\u3053\u3068\u304c\u3067\u304d\u306a\u3044": 5061,
  "\u308b\u306e\u3067\u3042\u308b": 5062,
  "\u308f\u305f\u3057\u3082": 5063,
  "\u30c7\u30ab\u30a4": 5064,
  "\u4f7f": 5065,
  "\u51fa\u3066\u884c\u3063\u3066": 5066,
  "\u5b89\u606f\u65e5\u306b": 5067,
  "\u6253\u3061\u7815": 5068,
  "\u77e5\u308b": 5069,
  "\u7e41": 5070,
  "\u7f6a\u3092\u72af\u3057\u305f": 5071,
  "\u8449": 5072,
  "\u2581Grace": 5073,
  "\u2581Red": 5074,
  "\u2581accepted": 5075,
  "\u2581accomplished": 5076,
  "\u2581bowels": 5077,
  "\u2581bowls": 5078,
  "\u2581confess": 5079,
  "\u2581contrary": 5080,
  "\u2581figs": 5081,
  "\u2581ninety": 5082,
  "\u2581overthrow": 5083,
  "\u2581repentance": 5084,
  "\u2581running": 5085,
  "\u2581tomorrow": 5086,
  "\u2581used": 5087,
  "\u2581\u30a8\u30ba\u30ec\u30eb": 5088,
  "\u2581\u30bc\u30c7\u30ad\u30e4": 5089,
  "\u2581\u53d6\u308a": 5090,
  "\u2581\u5606\u304d": 5091,
  "\u2581\u5eca": 5092,
  "\u2581\u6050\u308d\u3057": 5093,
  "\u2581\u6b32": 5094,
  "\u2581\u7d4c": 5095,
  "\u2581\u904e\u3054": 5096,
  "\u305d\u308c\u305e\u308c": 5097,
  "\u3064\u3048": 5098,
  "\u3064\u304d": 5099,
  "\u3064\u3051": 5100,
  "\u306e\u3053\u3068\u3092": 5101,
  "\u306e\u308d\u3044": 5102,
  "\u3072\u3068\u308a\u306f": 5103,
  "\u3078\u884c\u3063\u3066": 5104,
  "\u307e\u3044": 5105,
  "\u3088\u3046\u304b": 5106,
  "\u3088\u3046\u3068\u3057\u3066": 5107,
  "\u308f\u3056\u308f\u3044": 5108,
  "\u3092\u9023\u308c\u3066": 5109,
  "\u3092\u96e2\u308c\u3066": 5110,
  "\u30a2\u30c3\u30b9\u30ea\u30e4\u306e\u738b": 5111,
  "\u50cd\u304d": 5112,
  "\u56fd\u306e": 5113,
  "\u5712": 5114,
  "\u5897\u3057": 5115,
  "\u5b88\u308a": 5116,
  "\u62b1": 5117,
  "\u6771": 5118,
  "\u7267\u8005": 5119,
  "\u7551": 5120,
  "\u7bb1": 5121,
  "\u80a2": 5122,
  "\u884c\u308f\u308c\u305f": 5123,
  "\u8ca1\u5b9d": 5124,
  "\u901a": 5125,
  "\u96e8": 5126,
  "ite": 5127,
  "\u2581Amalek": 5128,
  "\u2581Art": 5129,
  "\u2581Immediately": 5130,
  "\u2581Nazareth": 5131,
  "\u2581Phinehas": 5132,
  "\u2581Re": 5133,
  "\u2581behalf": 5134,
  "\u2581bridegroom": 5135,
  "\u2581calamity": 5136,
  "\u2581damsel": 5137,
  "\u2581deceitful": 5138,
  "\u2581fourteenth": 5139,
  "\u2581hell": 5140,
  "\u2581lovers": 5141,
  "\u2581perceive": 5142,
  "\u2581roof": 5143,
  "\u2581sixteen": 5144,
  "\u2581tidings": 5145,
  "\u2581timber": 5146,
  "\u2581waves": 5147,
  "\u2581whirlwind": 5148,
  "\u2581wholly": 5149,
  "\u2581\u307e\u3063\u3059\u3050": 5150,
  "\u2581\u30b2\u30eb": 5151,
  "\u2581\u4ee5\u524d": 5152,
  "\u2581\u8a08\u308a": 5153,
  "\u2581\u91cf": 5154,
  "\u3053\u3068\u306f\u3067\u304d\u306a\u3044": 5155,
  "\u3055\u3044\u308f\u3044\u3067\u3042\u308b": 5156,
  "\u3055\u308c\u308b\u3067\u3042\u308d\u3046": 5157,
  "\u3064\u304b\u308f\u3057": 5158,
  "\u3069\u3046": 5159,
  "\u306a\u3055\u308c\u305f": 5160,
  "\u3092\u7acb\u3066\u3066": 5161,
  "\u4ea4": 5162,
  "\u4f7f\u5f92\u305f\u3061": 5163,
  "\u5207\u308a\u5012": 5164,
  "\u5352": 5165,
  "\u59e6": 5166,
  "\u5bbf\u55b6": 5167,
  "\u5f15\u304d\u4e0a\u3052": 5168,
  "\u6570": 5169,
  "\u661f": 5170,
  "\u66f8\u7269": 5171,
  "\u6c88": 5172,
  "\u753a\u3005": 5173,
  "\u771f\u5b9f": 5174,
  "\u795e\u3092": 5175,
  "\u8005\u3088": 5176,
  "\u805e": 5177,
  "\u81ea\u5206\u3092": 5178,
  "\u9020\u3063\u305f": 5179,
  "\u9020\u3089\u308c\u305f": 5180,
  "\u9032\u3093\u3060": 5181,
  "\u90e8\u65cf": 5182,
  "\u96c4\u7f8a": 5183,
  "\u9ad8\u3044": 5184,
  "All": 5185,
  "\u2581Adonijah": 5186,
  "\u2581G": 5187,
  "\u2581Whom": 5188,
  "\u2581abound": 5189,
  "\u2581aroma": 5190,
  "\u2581begged": 5191,
  "\u2581dedicated": 5192,
  "\u2581dogs": 5193,
  "\u2581eats": 5194,
  "\u2581examine": 5195,
  "\u2581northward": 5196,
  "\u2581plagues": 5197,
  "\u2581staves": 5198,
  "\u2581touches": 5199,
  "\u2581worse": 5200,
  "\u2581\u304a\u308a": 5201,
  "\u2581\u304b\u304b\u308f": 5202,
  "\u2581\u304f\u3060": 5203,
  "\u2581\u30a8\u30db\u30e4\u30ad\u30e0": 5204,
  "\u2581\u30bf\u30de\u30eb": 5205,
  "\u2581\u30e8\u30ca": 5206,
  "\u2581\u6d99": 5207,
  "\u2581\u7a93": 5208,
  "\u2581\u7d9a": 5209,
  "\u2581\u80f8": 5210,
  "\u2581\u8239": 5211,
  "\u2581\u8352\u5e03": 5212,
  "\u2581\u96cc": 5213,
  "\u3044\u3060": 5214,
  "\u3053\u3068\u306b\u3088\u3063\u3066": 5215,
  "\u306b\u4f4f\u3080": 5216,
  "\u306e\u3067\u306f\u306a\u304f": 5217,
  "\u307e\u3057": 5218,
  "\u307e\u3057\u3087\u3046\u304b": 5219,
  "\u307e\u305b": 5220,
  "\u3082\u306e\u3067": 5221,
  "\u3086\u308b\u3057": 5222,
  "\u3088\u3046\u306a": 5223,
  "\u3092\u4e0e\u3048\u3066": 5224,
  "\u3092\u6ec5\u307c\u3057": 5225,
  "\u4f3c": 5226,
  "\u5168\u5bb6": 5227,
  "\u523a": 5228,
  "\u5f1f\u5b50\u305f\u3061": 5229,
  "\u61f2": 5230,
  "\u7acb\u3063\u3066\u3044\u305f": 5231,
  "\u8179": 5232,
  "\u82e5\u8005": 5233,
  "\u9019": 5234,
  "\u97f3": 5235,
  "\u9ce5": 5236,
  "or": 5237,
  "sheba": 5238,
  "\u2581Abijah": 5239,
  "\u2581Jotham": 5240,
  "\u2581ancient": 5241,
  "\u2581blameless": 5242,
  "\u2581blew": 5243,
  "\u2581dreams": 5244,
  "\u2581heavenly": 5245,
  "\u2581plucked": 5246,
  "\u2581pool": 5247,
  "\u2581self": 5248,
  "\u2581sexual": 5249,
  "\u2581twelfth": 5250,
  "\u2581unrighteousness": 5251,
  "\u2581wroth": 5252,
  "\u2581\u304b\u304d": 5253,
  "\u2581\u3055\u304a": 5254,
  "\u2581\u30b7\u30c9\u30f3": 5255,
  "\u2581\u30df\u30c5\u30d1": 5256,
  "\u2581\u4e3b\u306f\u307e\u305f\u30e2\u30fc\u30bb": 5257,
  "\u2581\u57f7": 5258,
  "\u2581\u5869": 5259,
  "\u2581\u6398": 5260,
  "\u3046\u3061\u306b": 5261,
  "\u304a\u3053\u306a\u3044": 5262,
  "\u304c\u3042\u308c\u3070": 5263,
  "\u3057\u308f\u3056": 5264,
  "\u3059\u307f\u3084\u304b\u306b": 5265,
  "\u305d\u306e\u59bb": 5266,
  "\u306e\u540d": 5267,
  "\u3078\u884c\u3063\u305f": 5268,
  "\u3081\u3068": 5269,
  "\u3088\u3046\u3068\u3057\u305f": 5270,
  "\u308f\u305f\u3057\u306e\u524d\u306b": 5271,
  "\u3092\u6301\u3063\u3066": 5272,
  "\u30a8\u30b8\u30d7\u30c8\u306e": 5273,
  "\u4eba\u9593": 5274,
  "\u4f5c": 5275,
  "\u52c7": 5276,
  "\u53bb": 5277,
  "\u5730\u304b\u3089": 5278,
  "\u5bb4": 5279,
  "\u5f6b": 5280,
  "\u6cbb\u4e16": 5281,
  "\u7136": 5282,
  "\u76ae": 5283,
  "\u8a00\u3044": 5284,
  "\u9152": 5285,
  "\u9577\u5b50": 5286,
  "\u98f2\u3080": 5287,
  "Speak": 5288,
  "four": 5289,
  "though": 5290,
  "\u2581Howbeit": 5291,
  "\u2581Jezebel": 5292,
  "\u2581Maaseiah": 5293,
  "\u2581River": 5294,
  "\u2581armor": 5295,
  "\u2581betray": 5296,
  "\u2581coals": 5297,
  "\u2581companions": 5298,
  "\u2581forbid": 5299,
  "\u2581joyful": 5300,
  "\u2581lusts": 5301,
  "\u2581maid": 5302,
  "\u2581pronounce": 5303,
  "\u2581shields": 5304,
  "\u2581shoot": 5305,
  "\u2581something": 5306,
  "\u2581thirsty": 5307,
  "\u2581\u3053\u3093\u306a": 5308,
  "\u2581\u30a2\u30a4": 5309,
  "\u2581\u30d9\u30ca\u30e4": 5310,
  "\u2581\u4e9c\u9ebb\u5e03": 5311,
  "\u2581\u547c\u3070\u308f": 5312,
  "\u2581\u5b50\u3069\u3082": 5313,
  "\u2581\u5ba4": 5314,
  "\u2581\u5e2b": 5315,
  "\u2581\u5e7e": 5316,
  "\u2581\u5f79": 5317,
  "\u2581\u8b6c": 5318,
  "\u3042\u3084\u307e\u3061": 5319,
  "\u3044\u3067": 5320,
  "\u3050": 5321,
  "\u3055\u3055\u3052\u308b": 5322,
  "\u305d\u306e\u4eba\u304c": 5323,
  "\u305d\u306e\u5144\u5f1f": 5324,
  "\u3064\u308b\u304e\u3092": 5325,
  "\u3066\u304d\u305f": 5326,
  "\u306b\u3068\u3063\u3066": 5327,
  "\u306b\u4f4f\u3080\u8005": 5328,
  "\u3089\u306a\u304b\u3063\u305f": 5329,
  "\u308f\u304c\u4e3b\u3088": 5330,
  "\u308f\u305a\u3089": 5331,
  "\u3092\u4e0e\u3048": 5332,
  "\u3092\u6301\u3063\u3066\u3044\u308b": 5333,
  "\u3092\u6355\u3048": 5334,
  "\u30a2\u30d3\u30e4\u30bf\u30eb": 5335,
  "\u30a8\u30ea\u30b7\u30e3": 5336,
  "\u4e03\u3064\u306e": 5337,
  "\u4e16": 5338,
  "\u4e16\u3092\u6cbb\u3081\u305f": 5339,
  "\u4f11\u307f": 5340,
  "\u5168\u3046": 5341,
  "\u5893": 5342,
  "\u5929\u306e": 5343,
  "\u5f7c\u5973\u306b": 5344,
  "\u60aa\u4eba": 5345,
  "\u69d8\u5b50": 5346,
  "\u6c38\u9060\u306b": 5347,
  "\u8cab": 5348,
  "\u9ed2": 5349,
  "most": 5350,
  "\u2581Beer": 5351,
  "\u2581Carmel": 5352,
  "\u2581Jabesh": 5353,
  "\u2581Jehoram": 5354,
  "\u2581Sidon": 5355,
  "\u2581astonishment": 5356,
  "\u2581bathe": 5357,
  "\u2581black": 5358,
  "\u2581creatures": 5359,
  "\u2581goest": 5360,
  "\u2581lose": 5361,
  "\u2581persecute": 5362,
  "\u2581southward": 5363,
  "\u2581\u53e4": 5364,
  "\u2581\u5dfb\u7269": 5365,
  "\u2581\u75c5\u4eba": 5366,
  "\u2581\u8010\u3048": 5367,
  "\u2581\u80a9": 5368,
  "\u2581\u98df\u5353": 5369,
  "\u2581\u98fd\u304d": 5370,
  "\u3042\u306a\u305f\u306e\u6c11": 5371,
  "\u3053\u3068\u304c\u306a\u3044": 5372,
  "\u3053\u308d": 5373,
  "\u3055\u3068\u3057": 5374,
  "\u305d\u306e\u5b50\u3089": 5375,
  "\u305f\u3061\u304c": 5376,
  "\u3060\u308c\u304b": 5377,
  "\u3060\u308c\u3067\u3082": 5378,
  "\u3068\u3044\u3046\u306e\u306f": 5379,
  "\u306e\u4eba\u3005\u306f": 5380,
  "\u3080\u3057\u308d": 5381,
  "\u3082\u308d\u3082\u308d\u306e\u56fd": 5382,
  "\u308b\u306a": 5383,
  "\u308f\u3056\u3092": 5384,
  "\u308f\u308c\u3089": 5385,
  "\u30a8\u30ec\u30df\u30e4": 5386,
  "\u30e6\u30d5\u30e9\u30c6": 5387,
  "\u4ee5\u5916": 5388,
  "\u58f0\u3092": 5389,
  "\u5973\u304c": 5390,
  "\u5bcc": 5391,
  "\u5f37\u60c5": 5392,
  "\u67d4": 5393,
  "\u6b69\u307f": 5394,
  "\u6c42\u3081": 5395,
  "\u751f\u304d\u308b": 5396,
  "\u7db1": 5397,
  "\u7f6a\u3092": 5398,
  "\u80aa": 5399,
  "\u8b1d": 5400,
  "\u9762": 5401,
  "ver": 5402,
  "\u2581Ahijah": 5403,
  "\u2581Ekron": 5404,
  "\u2581Hazael": 5405,
  "\u2581account": 5406,
  "\u2581amazed": 5407,
  "\u2581awake": 5408,
  "\u2581baptism": 5409,
  "\u2581burdens": 5410,
  "\u2581calling": 5411,
  "\u2581fountain": 5412,
  "\u2581further": 5413,
  "\u2581governors": 5414,
  "\u2581leaves": 5415,
  "\u2581merry": 5416,
  "\u2581roar": 5417,
  "\u2581swords": 5418,
  "\u2581valor": 5419,
  "\u2581\u3042\u306a\u305f\u306f\u307e\u305f": 5420,
  "\u2581\u3053\u308c\u3089\u306e": 5421,
  "\u2581\u305d\u3053\u3067\u5f7c\u3089\u306f": 5422,
  "\u2581\u30a6\u30b8\u30e4": 5423,
  "\u2581\u30d8\u30d6\u30eb": 5424,
  "\u2581\u4e9c\u9ebb": 5425,
  "\u2581\u5fa1\u5ea7": 5426,
  "\u3059\u308b\u8005": 5427,
  "\u305d\u306e\u5973": 5428,
  "\u306b\u8a00\u3044\u306a\u3055\u3044": 5429,
  "\u306e\u6728": 5430,
  "\u3072": 5431,
  "\u3072\u3068\u3057": 5432,
  "\u3089\u308c\u3066\u3044\u308b": 5433,
  "\u3092\u3057\u3066": 5434,
  "\u30a2\u30b7\u30e9": 5435,
  "\u30ab\u30ca\u30f3\u3073\u3068": 5436,
  "\u30c0\u30f3": 5437,
  "\u30e3": 5438,
  "\u4e3b\u306e\u5bae\u306e": 5439,
  "\u5148\u7956\u305f\u3061": 5440,
  "\u52e7\u3081": 5441,
  "\u5b50\u4f9b\u305f\u3061": 5442,
  "\u6182\u3044": 5443,
  "\u66f8": 5444,
  "\u697d\u3057\u307f": 5445,
  "\u6c5a\u308c\u305f": 5446,
  "\u751f\u308c\u305f": 5447,
  "\u7834": 5448,
  "\u898b\u6368\u3066": 5449,
  "\u9060\u304f": 5450,
  "\u2581Canaanite": 5451,
  "\u2581Cyrus": 5452,
  "\u2581Judea": 5453,
  "\u2581Machir": 5454,
  "\u2581Og": 5455,
  "\u2581altogether": 5456,
  "\u2581bearing": 5457,
  "\u2581common": 5458,
  "\u2581condemned": 5459,
  "\u2581drinking": 5460,
  "\u2581ended": 5461,
  "\u2581inward": 5462,
  "\u2581profaned": 5463,
  "\u2581sakes": 5464,
  "\u2581sharp": 5465,
  "\u2581virgins": 5466,
  "\u2581wickedly": 5467,
  "\u2581\u3055\u3070\u304f": 5468,
  "\u2581\u3076\u3093\u3069\u308a\u7269": 5469,
  "\u2581\u30d4\u30ea\u30dd": 5470,
  "\u2581\u30e9\u30de": 5471,
  "\u2581\u5927\u6c34": 5472,
  "\u2581\u5e2d": 5473,
  "\u2581\u60aa\u4e8b": 5474,
  "\u2581\u6295\u3052": 5475,
  "\u2581\u80ce": 5476,
  "\u3042\u304c": 5477,
  "\u3055\u308c\u307e\u3057\u305f": 5478,
  "\u3058\u3085\u3046\u3076\u3093": 5479,
  "\u3068\u304d\u306f": 5480,
  "\u306e\u8005": 5481,
  "\u3076\u3069\u3046\u306e\u6728": 5482,
  "\u308f\u304c\u795e": 5483,
  "\u3092\u6bba\u3057": 5484,
  "\u3092\u6ec5\u307c\u3059": 5485,
  "\u30a2\u30eb": 5486,
  "\u30a2\u30f3\u30e2\u30f3\u306e\u4eba\u3005": 5487,
  "\u4e8b\u306f": 5488,
  "\u51fa\u8eab": 5489,
  "\u5927\u81e3": 5490,
  "\u5c0e\u304d\u5165\u308c": 5491,
  "\u5f7c\u5973\u3092": 5492,
  "\u719f": 5493,
  "\u7236\u306e": 5494,
  "\u7434": 5495,
  "\u7f6e\u3044\u305f": 5496,
  "\u2581Amalekites": 5497,
  "\u2581Hiram": 5498,
  "\u2581Look": 5499,
  "\u2581Zerah": 5500,
  "\u2581Zerubbabel": 5501,
  "\u2581acceptable": 5502,
  "\u2581bullocks": 5503,
  "\u2581cedars": 5504,
  "\u2581devise": 5505,
  "\u2581executed": 5506,
  "\u2581foreigners": 5507,
  "\u2581gotten": 5508,
  "\u2581officer": 5509,
  "\u2581parents": 5510,
  "\u2581passes": 5511,
  "\u2581perverse": 5512,
  "\u2581prayers": 5513,
  "\u2581rocks": 5514,
  "\u2581tempted": 5515,
  "\u2581therewith": 5516,
  "\u2581uncovered": 5517,
  "\u2581visited": 5518,
  "\u2581\u3053\u3053\u306b": 5519,
  "\u2581\u306e\u3079": 5520,
  "\u2581\u306f\u305a": 5521,
  "\u2581\u3082\u3063\u3068": 5522,
  "\u2581\u3088\u3053\u3057\u307e": 5523,
  "\u2581\u30ad\u30ea\u30a2\u30c6": 5524,
  "\u2581\u30cd\u30d6\u30ab\u30c7\u30cd\u30b6\u30eb": 5525,
  "\u2581\u56db\u5343": 5526,
  "\u2581\u5b98": 5527,
  "\u2581\u697d\u3057\u307f": 5528,
  "\u2581\u8a93\u9858": 5529,
  "\u304d\u3073\u3057": 5530,
  "\u3053\u3053\u3067": 5531,
  "\u3057\u306a\u3044": 5532,
  "\u3057\u3082\u3079\u306f": 5533,
  "\u305d\u306e\u6240\u306b": 5534,
  "\u305d\u308c\u3089\u306e": 5535,
  "\u3068\u540c\u3058\u3088\u3046\u306b": 5536,
  "\u3069\u3082": 5537,
  "\u306b\u5f93\u3044": 5538,
  "\u3075": 5539,
  "\u307e\u3053\u3068\u306b": 5540,
  "\u308b\u306a\u3089": 5541,
  "\u308b\u306e\u306f": 5542,
  "\u308f\u305f\u3057\u306e\u7236": 5543,
  "\u3092\u3059\u308b": 5544,
  "\u3092\u547c\u3093\u3067": 5545,
  "\u30a8\u30b8\u30d7\u30c8\u306e\u5730": 5546,
  "\u30a8\u30ea": 5547,
  "\u30bc": 5548,
  "\u50b5": 5549,
  "\u547c\u3073\u96c6\u3081": 5550,
  "\u5965\u7fa9": 5551,
  "\u5c0e\u304d": 5552,
  "\u5c0f\u3055\u3044": 5553,
  "\u5f7c\u3089\u3068": 5554,
  "\u6307\u63ee": 5555,
  "\u66f4": 5556,
  "\u6ec5\u3073\u308b": 5557,
  "\u6ede\u5728": 5558,
  "\u738b\u306b": 5559,
  "\u767e": 5560,
  "\u884c\u3053\u3046": 5561,
  "\u8996": 5562,
  "\u9032\u307f": 5563,
  "\u2581Keep": 5564,
  "\u2581Shem": 5565,
  "\u2581believeth": 5566,
  "\u2581ease": 5567,
  "\u2581falsely": 5568,
  "\u2581moment": 5569,
  "\u2581pomegranates": 5570,
  "\u2581reckoned": 5571,
  "\u2581skillful": 5572,
  "\u2581tarry": 5573,
  "\u2581trodden": 5574,
  "\u2581willingly": 5575,
  "\u2581\u30ab\u30ec\u30d6": 5576,
  "\u2581\u7089": 5577,
  "\u2581\u7f6a\u4eba": 5578,
  "\u3042\u3060": 5579,
  "\u3042\u306a\u305f\u3082": 5580,
  "\u304a\u3055\u3081": 5581,
  "\u3053\u305d": 5582,
  "\u3053\u306e\u6c11": 5583,
  "\u306e\u6240\u306b": 5584,
  "\u306f\u5f7c\u306e": 5585,
  "\u3072\u305d\u304b\u306b": 5586,
  "\u30c9": 5587,
  "\u30d8\u30d6\u30ed\u30f3": 5588,
  "\u4e94\u982d": 5589,
  "\u4ee3\u308a": 5590,
  "\u559c\u3076": 5591,
  "\u5bb3": 5592,
  "\u5f1f": 5593,
  "\u62e0": 5594,
  "\u6b7b\u3093\u3067": 5595,
  "\u9759": 5596,
  "\u9999": 5597,
  "sought": 5598,
  "will": 5599,
  "\u2581Cain": 5600,
  "\u2581Get": 5601,
  "\u2581Joel": 5602,
  "\u2581Peace": 5603,
  "\u2581cleave": 5604,
  "\u2581kid": 5605,
  "\u2581loose": 5606,
  "\u2581mocked": 5607,
  "\u2581possessions": 5608,
  "\u2581redemption": 5609,
  "\u2581rejoicing": 5610,
  "\u2581repay": 5611,
  "\u2581sickness": 5612,
  "\u2581songs": 5613,
  "\u2581winds": 5614,
  "\u2581wound": 5615,
  "\u2581\u305f\u304d\u304e": 5616,
  "\u2581\u307b\u3080": 5617,
  "\u2581\u30a8\u30ba\u30e9": 5618,
  "\u2581\u30e8": 5619,
  "\u2581\u4e3b\u306f\u8a00\u308f\u308c\u305f": 5620,
  "\u2581\u5168\u90e8": 5621,
  "\u2581\u60dc\u3057": 5622,
  "\u2581\u7acb\u3061\u4e0a\u304c": 5623,
  "\u3044\u306a\u3044": 5624,
  "\u3055\u308c\u3066\u3044\u308b": 5625,
  "\u3067\u3042\u308c": 5626,
  "\u306b\u3044\u305f": 5627,
  "\u3084\u304e": 5628,
  "\u3092\u5b88\u308b": 5629,
  "\u4e57\u305b": 5630,
  "\u4e89\u3044": 5631,
  "\u4e8c\u767e": 5632,
  "\u5531\u3048": 5633,
  "\u5e73\u91ce": 5634,
  "\u6c7a\u3081": 5635,
  "\u6e96": 5636,
  "\u6f64": 5637,
  "\u7a7a": 5638,
  "\u8349": 5639,
  "\u89e3\u304d\u660e\u304b\u3057": 5640,
  "\u8db3\u3082\u3068": 5641,
  "\u98df\u7ce7": 5642,
  "\u2581Ashdod": 5643,
  "\u2581Everyone": 5644,
  "\u2581Gomorrah": 5645,
  "\u2581Greet": 5646,
  "\u2581Likewise": 5647,
  "\u2581Micaiah": 5648,
  "\u2581Set": 5649,
  "\u2581Sisera": 5650,
  "\u2581abominable": 5651,
  "\u2581bitterness": 5652,
  "\u2581concubine": 5653,
  "\u2581division": 5654,
  "\u2581dwells": 5655,
  "\u2581hooks": 5656,
  "\u2581lady": 5657,
  "\u2581mourned": 5658,
  "\u2581proceed": 5659,
  "\u2581relatives": 5660,
  "\u2581required": 5661,
  "\u2581ruin": 5662,
  "\u2581seer": 5663,
  "\u2581separation": 5664,
  "\u2581stir": 5665,
  "\u2581stoned": 5666,
  "\u2581\u30a8\u30d5\u30bf": 5667,
  "\u2581\u30b7\u30ed": 5668,
  "\u2581\u30d2\u30e9\u30e0": 5669,
  "\u2581\u5408": 5670,
  "\u2581\u5c0e\u304d": 5671,
  "\u2581\u670d": 5672,
  "\u3042\u307e\u308a": 5673,
  "\u3044\u3064\u307e\u3067": 5674,
  "\u304f\u308b": 5675,
  "\u3066\u3044\u307e\u3059": 5676,
  "\u3068\u3044\u3063\u305f": 5677,
  "\u306a\u3044\u3067\u3042\u308d\u3046": 5678,
  "\u306b\u3057\u3066": 5679,
  "\u306e\u65e5\u306b": 5680,
  "\u306e\u8a00\u8449\u3092": 5681,
  "\u306f\u305a\u304b\u3057\u3081": 5682,
  "\u3088\u3046\u3068\u3059\u308b": 5683,
  "\u3089\u308c\u308b\u3088\u3046\u306b": 5684,
  "\u308f\u305f\u3057\u306f\u3042\u306a\u305f\u3092": 5685,
  "\u3092\u53d7\u3051\u3066": 5686,
  "\u30a4\u30b9\u30e9\u30a8\u30eb\u306f": 5687,
  "\u30d2\u30bc\u30ad\u30e4": 5688,
  "\u4e09\u5341": 5689,
  "\u4e3b\u306b\u4ed5\u3048": 5690,
  "\u544a\u767d": 5691,
  "\u610f\u5473": 5692,
  "\u6210": 5693,
  "\u6307": 5694,
  "\u6c34\u306f": 5695,
  "\u753a\u306b": 5696,
  "\u7a7a\u306e\u9ce5": 5697,
  "\u7b49\u3057": 5698,
  "\u7ba1": 5699,
  "\u7d66": 5700,
  "\u7d99": 5701,
  "\u8155": 5702,
  "\u81ea\u5206\u304c": 5703,
  "\u81ea\u5206\u305f\u3061": 5704,
  "\u9032\u3093\u3067": 5705,
  "\u91d1\u9280": 5706,
  "\u9593\u306b": 5707,
  "?'\"": 5708,
  "\u2581Deliver": 5709,
  "\u2581Eliab": 5710,
  "\u2581acknowledge": 5711,
  "\u2581assemblies": 5712,
  "\u2581breach": 5713,
  "\u2581centurion": 5714,
  "\u2581conspired": 5715,
  "\u2581flower": 5716,
  "\u2581harlot": 5717,
  "\u2581heaps": 5718,
  "\u2581looks": 5719,
  "\u2581manifest": 5720,
  "\u2581mouths": 5721,
  "\u2581murderer": 5722,
  "\u2581praying": 5723,
  "\u2581publish": 5724,
  "\u2581skins": 5725,
  "\u2581straightway": 5726,
  "\u2581tak": 5727,
  "\u2581tithes": 5728,
  "\u2581treacherously": 5729,
  "\u2581\u305d\u3057": 5730,
  "\u2581\u305f\u3073": 5731,
  "\u2581\u4ed6\u4eba": 5732,
  "\u2581\u52e4\u3081": 5733,
  "\u2581\u5e83\u5834": 5734,
  "\u2581\u614e": 5735,
  "\u2581\u66f4\u306b": 5736,
  "\u2581\u7e01": 5737,
  "\u2581\u8a08": 5738,
  "\u3054\u3089\u3093\u306a\u3055\u3044": 5739,
  "\u3055\u305a": 5740,
  "\u306e\u4eba\u3005": 5741,
  "\u307e\u3067\u306f": 5742,
  "\u307e\u3067\u3082": 5743,
  "\u308f\u304c\u4e3b": 5744,
  "\u3092\u9020\u3063\u3066": 5745,
  "\u30a4\u30b9\u30e9\u30a8\u30eb\u306b": 5746,
  "\u30bc\u30ab\u30ea\u30e4": 5747,
  "\u30cf\u30d6": 5748,
  "\u5929\u4f7f": 5749,
  "\u5b9f": 5750,
  "\u5c71\u306b": 5751,
  "\u5f71": 5752,
  "\u60b2": 5753,
  "\u753a\u306f": 5754,
  "\u76f8": 5755,
  "\u7815\u3051": 5756,
  "\u78ba\u304b\u306b": 5757,
  "\u805e\u304d\u3044\u308c": 5758,
  "\u805e\u3051": 5759,
  "\u8def": 5760,
  "\u8fb2\u592b": 5761,
  "\u9593": 5762,
  "\u96c4\u3084\u304e": 5763,
  "\u96e2\u308c\u53bb": 5764,
  "\u2581Gaza": 5765,
  "\u2581Hebrews": 5766,
  "\u2581Judaea": 5767,
  "\u2581Nabal": 5768,
  "\u2581Yah": 5769,
  "\u2581band": 5770,
  "\u2581barren": 5771,
  "\u2581belongs": 5772,
  "\u2581bowl": 5773,
  "\u2581discern": 5774,
  "\u2581doest": 5775,
  "\u2581fier": 5776,
  "\u2581fly": 5777,
  "\u2581greet": 5778,
  "\u2581hang": 5779,
  "\u2581lightning": 5780,
  "\u2581matters": 5781,
  "\u2581overcome": 5782,
  "\u2581plains": 5783,
  "\u2581pot": 5784,
  "\u2581region": 5785,
  "\u2581turning": 5786,
  "\u2581\u3044\u306b\u3057\u3048": 5787,
  "\u2581\u304b\u308d": 5788,
  "\u2581\u305d\u3057\u3066\u5f7c\u3089\u306f": 5789,
  "\u2581\u30a4\u30a8\u30b9\u304c": 5790,
  "\u2581\u30b7\u30ca\u30a4": 5791,
  "\u2581\u30bb\u30a4\u30eb": 5792,
  "\u2581\u30db\u30eb": 5793,
  "\u2581\u30e1\u30e9\u30ea": 5794,
  "\u2581\u30e4\u30b3\u30d6\u306f": 5795,
  "\u2581\u30ec": 5796,
  "\u2581\u4e07\u7269": 5797,
  "\u2581\u5208": 5798,
  "\u2581\u5b9d\u77f3": 5799,
  "\u2581\u66f8\u8a18": 5800,
  "\u2581\u8001\u3044": 5801,
  "\u2581\u82e6\u96e3": 5802,
  "\u3044\u3084": 5803,
  "\u304b\u3048\u308a\u307f": 5804,
  "\u3053\u3068\u304c\u3067\u304d\u3088\u3046\u304b": 5805,
  "\u3053\u3068\u3082": 5806,
  "\u3053\u306e\u5730": 5807,
  "\u3059\u3079\u3066\u306e\u4eba": 5808,
  "\u306b\u81e8\u3080": 5809,
  "\u306b\u81e8\u3093\u3060": 5810,
  "\u306e\u3088\u3046\u306b\u306a\u308a": 5811,
  "\u308b\u3068\u304d": 5812,
  "\u3092\u3068\u308a": 5813,
  "\u30ac\u30ea\u30e9\u30e4": 5814,
  "\u30c0\u30d6": 5815,
  "\u30d4": 5816,
  "\u4f34": 5817,
  "\u51fa\u3066\u884c\u3063\u305f": 5818,
  "\u5973\u305f\u3061": 5819,
  "\u5e2f\u3073": 5820,
  "\u6212": 5821,
  "\u6570\u3048": 5822,
  "\u6ec5\u307c\u3059": 5823,
  "\u6fc0\u3057\u3044": 5824,
  "\u71b1": 5825,
  "\u795e\u306e\u4eba": 5826,
  "\u7dcf\u7763": 5827,
  "\u7fa9\u4eba": 5828,
  "\u80fd": 5829,
  "\u901f": 5830,
  "God": 5831,
  "\u2581Amasa": 5832,
  "\u2581Euphrates": 5833,
  "\u2581Haran": 5834,
  "\u2581Jehoahaz": 5835,
  "\u2581Kish": 5836,
  "\u2581Les": 5837,
  "\u2581Naomi": 5838,
  "\u2581Return": 5839,
  "\u2581depths": 5840,
  "\u2581displeased": 5841,
  "\u2581drove": 5842,
  "\u2581eighty": 5843,
  "\u2581elder": 5844,
  "\u2581harps": 5845,
  "\u2581hire": 5846,
  "\u2581hunger": 5847,
  "\u2581liberty": 5848,
  "\u2581marriage": 5849,
  "\u2581marry": 5850,
  "\u2581mystery": 5851,
  "\u2581reach": 5852,
  "\u2581sayings": 5853,
  "\u2581seeks": 5854,
  "\u2581thunder": 5855,
  "\u2581wear": 5856,
  "\u2581\u3042\u3075\u308c": 5857,
  "\u2581\u3068\u304a": 5858,
  "\u2581\u4e0a\u3052": 5859,
  "\u2581\u52aa\u3081": 5860,
  "\u2581\u82e6": 5861,
  "\u2581\u9ea6": 5862,
  "\u3044\u3063\u305f\u3044": 5863,
  "\u304a\u3089\u308c\u305f": 5864,
  "\u3053\u3046\u3057\u3066": 5865,
  "\u3059\u305f\u308c": 5866,
  "\u305d\u306e\u8eab": 5867,
  "\u3066\u3044\u306a\u3044": 5868,
  "\u306a\u3044\u3088\u3046\u306b": 5869,
  "\u306a\u304a\u3055\u3089": 5870,
  "\u306e\u3082\u306e": 5871,
  "\u306e\u3082\u308d\u3082\u308d\u306e": 5872,
  "\u3076\u3069\u3046\u7551": 5873,
  "\u3092\u51fa\u7acb\u3057\u3066": 5874,
  "\u3092\u5efa\u3066": 5875,
  "\u3092\u6483\u3061": 5876,
  "\u3092\u7523\u3093\u3060": 5877,
  "\u30a2\u30c3\u30b9\u30ea\u30e4": 5878,
  "\u30a2\u30d3\u30e1\u30ec\u30af": 5879,
  "\u30d0\u30d3\u30ed\u30f3\u306e\u738b": 5880,
  "\u30d1\u30ed\u306f": 5881,
  "\u4e07": 5882,
  "\u4e07\u8ecd\u306e\u4e3b\u306f\u8a00\u308f\u308c\u308b": 5883,
  "\u4e3b\u306e\u8a00\u8449\u304c\u308f\u305f\u3057\u306b\u81e8\u3093\u3060": 5884,
  "\u4eba\u3092\u3064\u304b\u308f\u3057\u3066": 5885,
  "\u4f1a": 5886,
  "\u5009": 5887,
  "\u5049": 5888,
  "\u53d6\u308a\u3042\u3052": 5889,
  "\u5bb6\u755c": 5890,
  "\u5fa1": 5891,
  "\u60aa\u3057\u304d\u8005": 5892,
  "\u6b4c\u3048": 5893,
  "\u6b63\u3057\u3044\u8005": 5894,
  "\u77e5": 5895,
  "\u916c": 5896,
  "\u96c7": 5897,
  "Are": 5898,
  "b": 5899,
  "\u2581Asia": 5900,
  "\u2581Ithamar": 5901,
  "\u2581Nay": 5902,
  "\u2581Seraiah": 5903,
  "\u2581besieged": 5904,
  "\u2581bottom": 5905,
  "\u2581eleventh": 5906,
  "\u2581feeble": 5907,
  "\u2581jealous": 5908,
  "\u2581laws": 5909,
  "\u2581learned": 5910,
  "\u2581ministers": 5911,
  "\u2581mock": 5912,
  "\u2581prudent": 5913,
  "\u2581salute": 5914,
  "\u2581sayest": 5915,
  "\u2581seeketh": 5916,
  "\u2581stronger": 5917,
  "\u2581tongues": 5918,
  "\u2581weighed": 5919,
  "\u2581working": 5920,
  "\u2581\u3046\u304b\u304c": 5921,
  "\u2581\u304a\u3073\u305f\u3060\u3057": 5922,
  "\u2581\u30ae\u30ea\u30b7\u30e4": 5923,
  "\u2581\u30b7\u30de\u30e4": 5924,
  "\u2581\u30b7\u30e7\u30f3": 5925,
  "\u2581\u30cd\u30b2\u30d6": 5926,
  "\u2581\u30ea\u30d9\u30ab": 5927,
  "\u2581\u5275\u9020": 5928,
  "\u2581\u5de7\u307f": 5929,
  "\u2581\u5f15\u304d\u51fa": 5930,
  "\u2581\u60aa\u9b54": 5931,
  "\u2581\u898b\u3044\u3060": 5932,
  "\u3044\u305f\u306e\u3067": 5933,
  "\u305d\u306e\u753a": 5934,
  "\u305f\u8005": 5935,
  "\u307b\u3069\u306e": 5936,
  "\u308f\u308c\u308b": 5937,
  "\u3092\u3064\u304b\u308f\u3057\u3066": 5938,
  "\u30b5\u30e0\u30a8\u30eb": 5939,
  "\u4e3b\u306e\u5bae\u306b": 5940,
  "\u4fe1\u4ef0\u306b\u3088\u3063\u3066": 5941,
  "\u52c7\u6c17": 5942,
  "\u547c\u3070\u308f\u308a": 5943,
  "\u5e30\u3063\u305f": 5944,
  "\u6545": 5945,
  "\u66f2\u3052": 5946,
  "\u671d": 5947,
  "\u6d41\u308c": 5948,
  "\u713c\u304d\u6ec5\u307c": 5949,
  "\u8f2a": 5950,
  "\u9678": 5951,
  ":)": 5952,
  "us": 5953,
  "\u2581Achish": 5954,
  "\u2581Ahikam": 5955,
  "\u2581Amon": 5956,
  "\u2581Elias": 5957,
  "\u2581Listen": 5958,
  "\u2581South": 5959,
  "\u2581clear": 5960,
  "\u2581cloth": 5961,
  "\u2581deed": 5962,
  "\u2581encamp": 5963,
  "\u2581fir": 5964,
  "\u2581forsook": 5965,
  "\u2581greatest": 5966,
  "\u2581instructed": 5967,
  "\u2581keeper": 5968,
  "\u2581languages": 5969,
  "\u2581magnified": 5970,
  "\u2581merchandise": 5971,
  "\u2581persuaded": 5972,
  "\u2581sinner": 5973,
  "\u2581sits": 5974,
  "\u2581sitteth": 5975,
  "\u2581tried": 5976,
  "\u2581turns": 5977,
  "\u2581\u3053\u3046\u3057\u3066\u5f7c\u3089\u306f": 5978,
  "\u2581\u3072\u3082": 5979,
  "\u2581\u3075\u305f\u305f\u3073": 5980,
  "\u2581\u30d2\u30eb\u30ad\u30e4": 5981,
  "\u2581\u53d6\u308a\u51fa": 5982,
  "\u2581\u6210": 5983,
  "\u2581\u65c5": 5984,
  "\u2581\u6b20\u3051": 5985,
  "\u2581\u8efd\u3093": 5986,
  "\u304a\u304d": 5987,
  "\u304a\u306e\u308c": 5988,
  "\u304b\u306a": 5989,
  "\u3053\u3068\u306a\u304f": 5990,
  "\u3057\u307e\u3059": 5991,
  "\u306a\u3059": 5992,
  "\u306e\u305f\u3081\u306e": 5993,
  "\u306e\u6240\u3078": 5994,
  "\u3072\u3058\u3087\u3046": 5995,
  "\u3078\u884c\u304d": 5996,
  "\u3080\u3059\u3053": 5997,
  "\u308f\u3057": 5998,
  "\u3092\u5f97\u3055\u305b": 5999,
  "\u30d1\u30a6\u30ed": 6000,
  "\u30e2\u30a2\u30d6\u306e": 6001,
  "\u30e8\u30b7\u30e5\u30a2": 6002,
  "\u4e16\u306e": 6003,
  "\u4e4f": 6004,
  "\u501f": 6005,
  "\u5185\u5074": 6006,
  "\u5185\u81d3": 6007,
  "\u52b1": 6008,
  "\u547c\u3073\u6c42\u3081": 6009,
  "\u596a\u3044\u53bb": 6010,
  "\u5fcc": 6011,
  "\u6065\u3058": 6012,
  "\u6075": 6013,
  "\u663c": 6014,
  "\u6c42": 6015,
  "\u8005\u305f\u3061\u306f": 6016,
  "\u8089\u4f53": 6017,
  "\u8239": 6018,
  "\u82e6": 6019,
  "\u9752\u9285": 6020,
  "\u2581Hazor": 6021,
  "\u2581Notwithstanding": 6022,
  "\u2581backward": 6023,
  "\u2581brightness": 6024,
  "\u2581clothe": 6025,
  "\u2581custom": 6026,
  "\u2581familiar": 6027,
  "\u2581grief": 6028,
  "\u2581move": 6029,
  "\u2581potter": 6030,
  "\u2581prosperity": 6031,
  "\u2581recover": 6032,
  "\u2581repented": 6033,
  "\u2581request": 6034,
  "\u2581sole": 6035,
  "\u2581twin": 6036,
  "\u2581\u3057\u3082\u3079\u3089": 6037,
  "\u2581\u3059\u3050\u308c": 6038,
  "\u2581\u3059\u307f": 6039,
  "\u2581\u30a6\u30ea\u30e4": 6040,
  "\u2581\u30dc\u30a2\u30ba": 6041,
  "\u2581\u30ec\u30a2": 6042,
  "\u2581\u52b4\u82e6": 6043,
  "\u2581\u6797": 6044,
  "\u2581\u7559\u3081": 6045,
  "\u3042\u304c\u306a\u3044": 6046,
  "\u3059\u3048": 6047,
  "\u3068\u3073\u3089": 6048,
  "\u3068\u601d\u3063\u305f": 6049,
  "\u306b\u304d\u305f": 6050,
  "\u306b\u307e\u3055\u3063\u3066": 6051,
  "\u306b\u4f1a\u3046": 6052,
  "\u306e\u304b\u305f\u308f\u3089\u306b": 6053,
  "\u306e\u8c37": 6054,
  "\u3092\u3055\u3070\u304f": 6055,
  "\u3092\u3064\u3051": 6056,
  "\u3092\u5f97\u305f": 6057,
  "\u3092\u9078\u3073": 6058,
  "\u30d9\u30cb\u30e4\u30df\u30f3": 6059,
  "\u30ec\u30d3": 6060,
  "\u4efb\u305b": 6061,
  "\u51fa\u5165\u308a": 6062,
  "\u5f7c\u3068\u5171\u306b": 6063,
  "\u6226\u4e89": 6064,
  "\u6599": 6065,
  "\u65e5\u306f": 6066,
  "\u6750": 6067,
  "\u6df1\u304f": 6068,
  "\u6fc3": 6069,
  "\u77e2": 6070,
  "\u7d42\u308a": 6071,
  "\u7d76\u3048": 6072,
  "\u884c\u304b\u305b": 6073,
  "\u88c5": 6074,
  "\u8a9e\u3089\u308c\u305f": 6075,
  "by": 6076,
  "\u2581Eden": 6077,
  "\u2581Elkanah": 6078,
  "\u2581Heaven": 6079,
  "\u2581Jebusite": 6080,
  "\u2581digged": 6081,
  "\u2581dreamed": 6082,
  "\u2581fully": 6083,
  "\u2581prisoners": 6084,
  "\u2581receives": 6085,
  "\u2581sabbaths": 6086,
  "\u2581stick": 6087,
  "\u2581\u3057\u304b\u3057\u308f\u305f\u3057\u306f": 6088,
  "\u2581\u3082\u3057\u4eba\u304c": 6089,
  "\u2581\u30b3\u30e9": 6090,
  "\u304b\u3055\u306d": 6091,
  "\u3053\u3068\u306b": 6092,
  "\u3053\u308c\u3089\u306e\u3053\u3068\u3092": 6093,
  "\u305d\u306e\u56fd": 6094,
  "\u305d\u306e\u7f6a": 6095,
  "\u3060\u304b\u3089": 6096,
  "\u306b\u81f3\u308b\u307e\u3067": 6097,
  "\u306e\u4e0b": 6098,
  "\u306f\u3059\u3079\u3066": 6099,
  "\u3089\u308c\u307e\u3059": 6100,
  "\u308b\u305f\u3081": 6101,
  "\u308b\u306e\u304b": 6102,
  "\u308b\u306e\u3067\u3059\u304b": 6103,
  "\u3092\u6368\u3066\u3066": 6104,
  "\u3092\u6c42\u3081\u308b": 6105,
  "\u3092\u9078\u3093\u3067": 6106,
  "\u30a2\u30f3\u30c6\u30aa\u30b1": 6107,
  "\u30e4\u30ea\u30e0": 6108,
  "\u4e03\u65e5\u306e\u9593": 6109,
  "\u4e3b\u306e\u305f\u3081\u306b": 6110,
  "\u52d9": 6111,
  "\u53bb\u3063\u3066": 6112,
  "\u5f7c\u5973\u306e": 6113,
  "\u611a": 6114,
  "\u6240\u6709": 6115,
  "\u653b\u3081": 6116,
  "\u6bdb": 6117,
  "\u8272": 6118,
  "\u8a00\u3048": 6119,
  "\u8d77\u304d\u3042\u304c": 6120,
  "\u901a\u308a\u904e\u304e": 6121,
  "\u9262": 6122,
  "\u92ed": 6123,
  "Give": 6124,
  "\u2581Obadiah": 6125,
  "\u2581Succoth": 6126,
  "\u2581bestow": 6127,
  "\u2581breaking": 6128,
  "\u2581calves": 6129,
  "\u2581churches": 6130,
  "\u2581desir": 6131,
  "\u2581falsehood": 6132,
  "\u2581fenced": 6133,
  "\u2581nevertheless": 6134,
  "\u2581ointment": 6135,
  "\u2581persecuted": 6136,
  "\u2581prophecy": 6137,
  "\u2581shoulders": 6138,
  "\u2581spent": 6139,
  "\u2581spot": 6140,
  "\u2581stands": 6141,
  "\u2581stopped": 6142,
  "\u2581strive": 6143,
  "\u2581threshold": 6144,
  "\u2581\u304b\u308c": 6145,
  "\u2581\u305d\u306e\u4eba\u306f": 6146,
  "\u2581\u3064\u304b\u3048": 6147,
  "\u2581\u30ac\u30c6": 6148,
  "\u2581\u30b3\u30cf\u30c6": 6149,
  "\u2581\u30d9\u30a8\u30eb": 6150,
  "\u2581\u30df\u30ab\u30e4": 6151,
  "\u2581\u4e8b\u5b9f": 6152,
  "\u2581\u4fa1": 6153,
  "\u2581\u5a66\u4eba": 6154,
  "\u2581\u6b74\u4ee3": 6155,
  "\u2581\u85ab\u9999": 6156,
  "\u2581\u964d\u308a": 6157,
  "\u3044\u3064\u307e\u3067\u3082": 6158,
  "\u3044\u308c": 6159,
  "\u304a\u3088\u3073\u305d\u306e": 6160,
  "\u3053\u308c\u304c": 6161,
  "\u305d\u308c\u304b\u3089": 6162,
  "\u3063\u3066\u8a00\u3063\u305f": 6163,
  "\u306a\u3089\u308f\u3057": 6164,
  "\u306b\u3057": 6165,
  "\u306b\u4f4f\u3093\u3060": 6166,
  "\u307f\u3054\u3082": 6167,
  "\u3082\u308d\u3082\u308d\u306e\u56fd\u6c11": 6168,
  "\u308f\u305f\u3057\u306e\u76ee": 6169,
  "\u3093\u3067\u3044\u308b": 6170,
  "\u30e6\u30c0\u306e\u738b": 6171,
  "\u30e8\u30b7\u30e3\u30d1\u30c6": 6172,
  "\u4e00\u65e5": 6173,
  "\u4ed8": 6174,
  "\u4f55\u8005": 6175,
  "\u5148": 6176,
  "\u53e3\u3065\u3051": 6177,
  "\u59b9": 6178,
  "\u5be9": 6179,
  "\u5e30\u3063\u3066": 6180,
  "\u5ef6": 6181,
  "\u5fc5": 6182,
  "\u6075\u307e\u308c": 6183,
  "\u6577": 6184,
  "\u6797": 6185,
  "\u6b8b\u3063\u3066\u3044\u308b": 6186,
  "\u6c38\u9060\u306e": 6187,
  "\u738b\u306b\u8a00\u3063\u305f": 6188,
  "\u751f\u308c": 6189,
  "\u8056\u306a\u308b\u7269": 6190,
  "\u81d3": 6191,
  "\u8a34\u3048": 6192,
  "\u8af8\u6559\u4f1a": 6193,
  "\u8ca7\u3057\u3044\u8005": 6194,
  "iah": 6195,
  "ucheth": 6196,
  "\u2581Hezron": 6197,
  "\u2581Nadab": 6198,
  "\u2581Nethaniah": 6199,
  "\u2581answering": 6200,
  "\u2581betrayed": 6201,
  "\u2581bone": 6202,
  "\u2581breast": 6203,
  "\u2581couple": 6204,
  "\u2581cunning": 6205,
  "\u2581direct": 6206,
  "\u2581frankincense": 6207,
  "\u2581hin": 6208,
  "\u2581hypocrites": 6209,
  "\u2581lad": 6210,
  "\u2581legs": 6211,
  "\u2581mention": 6212,
  "\u2581reveal": 6213,
  "\u2581seeking": 6214,
  "\u2581simple": 6215,
  "\u2581standard": 6216,
  "\u2581\u3015": 6217,
  "\u2581\u304b\u3076": 6218,
  "\u2581\u30a2\u30b5\u30d5": 6219,
  "\u2581\u30a2\u30e9\u30e0": 6220,
  "\u2581\u30ae\u30eb\u30ac\u30eb": 6221,
  "\u2581\u30b7\u30e3\u30eb\u30e0": 6222,
  "\u2581\u4e3b\u306f\u307e\u305f": 6223,
  "\u2581\u5f79\u4eba": 6224,
  "\u2581\u65d7": 6225,
  "\u2581\u843d": 6226,
  "\u2581\u9670": 6227,
  "\u3042\u306a\u305f\u304c\u305f\u306b\u8a00\u3063\u3066\u304a\u304f": 6228,
  "\u304b\u304c\u3081": 6229,
  "\u3053\u3068\u304c\u306a\u304f": 6230,
  "\u3053\u306e\u4e8b": 6231,
  "\u3053\u306e\u56fd": 6232,
  "\u3053\u306e\u65e5": 6233,
  "\u3059\u3050\u306b": 6234,
  "\u3066\u3057\u307e\u3046": 6235,
  "\u3067\u3042\u308b\u304b": 6236,
  "\u3069\u304a\u308a": 6237,
  "\u306b\u307e\u3055\u308b": 6238,
  "\u306e\u5144\u5f1f": 6239,
  "\u30a2\u30a1\u30e1\u30f3": 6240,
  "\u30a2\u30f3\u30e2\u30f3\u3073\u3068": 6241,
  "\u30ac": 6242,
  "\u30ae\u30d9\u30a2": 6243,
  "\u30d1\u30a6\u30ed\u306f": 6244,
  "\u4e00\u5343": 6245,
  "\u4f1a\u898b\u306e\u5e55\u5c4b": 6246,
  "\u5371": 6247,
  "\u547d\u3058\u3066": 6248,
  "\u5782\u5e55": 6249,
  "\u5927\u8ecd": 6250,
  "\u5f7c\u3089\u306e\u3046\u3061\u306b": 6251,
  "\u618e\u3080\u3079\u304d": 6252,
  "\u624b\u3067": 6253,
  "\u67af": 6254,
  "\u70b9": 6255,
  "\u7279": 6256,
  "\u7f6e\u304d": 6257,
  "\u884c\u70ba": 6258,
  "\u899a": 6259,
  "\u8d70\u308a": 6260,
  "\u8d77\u304d\u3066": 6261,
  "\u91d1\u3092": 6262,
  "\u964d\u3089": 6263,
  "\u9996": 6264,
  "In": 6265,
  "Surely": 6266,
  "],": 6267,
  "tribe": 6268,
  "\u2581Amorite": 6269,
  "\u2581Curse": 6270,
  "\u2581Jebusites": 6271,
  "\u2581Manoah": 6272,
  "\u2581Men": 6273,
  "\u2581Naboth": 6274,
  "\u2581Rimmon": 6275,
  "\u2581Sea": 6276,
  "\u2581board": 6277,
  "\u2581candlestick": 6278,
  "\u2581cruel": 6279,
  "\u2581denied": 6280,
  "\u2581earnestly": 6281,
  "\u2581equal": 6282,
  "\u2581highway": 6283,
  "\u2581integrity": 6284,
  "\u2581keepers": 6285,
  "\u2581partakers": 6286,
  "\u2581prove": 6287,
  "\u2581receiveth": 6288,
  "\u2581remaineth": 6289,
  "\u2581rested": 6290,
  "\u2581roots": 6291,
  "\u2581shoes": 6292,
  "\u2581sisters": 6293,
  "\u2581space": 6294,
  "\u2581ungodly": 6295,
  "\u2581vail": 6296,
  "\u2581valour": 6297,
  "\u2581wonderful": 6298,
  "\u2581\u304a\u3068\u305a\u308c": 6299,
  "\u2581\u3056\u304f\u308d": 6300,
  "\u2581\u30a2\u30d2\u30c8": 6301,
  "\u2581\u5411\u3053\u3046": 6302,
  "\u2581\u65e5\u3005": 6303,
  "\u2581\u7537\u5973": 6304,
  "\u2581\u898b\u3064\u304b": 6305,
  "\u304a\u307e\u3048\u306f": 6306,
  "\u304b\u306a\u305f": 6307,
  "\u3055\u308c\u305f\u306e\u3067": 6308,
  "\u3059\u3067\u3042\u308d\u3046": 6309,
  "\u305d\u306e\u5144\u5f1f\u305f\u3061": 6310,
  "\u305f\u3081\u3067\u3042\u3063\u305f": 6311,
  "\u3061\u308a": 6312,
  "\u306e\u3088\u3046\u3067": 6313,
  "\u306e\u4f9b\u3048\u7269": 6314,
  "\u306e\u58f0": 6315,
  "\u306f\u3044\u308b": 6316,
  "\u3078\u3073": 6317,
  "\u3092\u643a\u3048\u3066": 6318,
  "\u3092\u8a2d\u3051": 6319,
  "\u3092\u98df\u3079": 6320,
  "\u30a2\u30ed\u30f3\u3068\u305d\u306e\u5b50\u305f\u3061": 6321,
  "\u30a8\u30d5\u30e9\u30a4\u30e0": 6322,
  "\u30b7\u30b1\u30e0": 6323,
  "\u30b7\u30e2\u30f3": 6324,
  "\u30da\u30ea\u30b7\u30c6\u3073\u3068\u306e": 6325,
  "\u30e4\u30b3\u30d6\u306f": 6326,
  "\u4e3b\u306a\u308b\u795e\u3088": 6327,
  "\u4e5d\u5341": 6328,
  "\u516d": 6329,
  "\u540c\u3058\u304f": 6330,
  "\u5927\u304d\u3044": 6331,
  "\u5927\u796d\u53f8": 6332,
  "\u5b50\u725b": 6333,
  "\u6094\u6539\u3081": 6334,
  "\u611b\u3059\u308b": 6335,
  "\u61b6": 6336,
  "\u627f\u77e5": 6337,
  "\u677f": 6338,
  "\u67f1\u982d": 6339,
  "\u6c38\u4e45\u306b": 6340,
  "\u6ec5\u307c\u3055\u308c\u308b": 6341,
  "\u71c3\u3084": 6342,
  "\u75b2": 6343,
  "\u76ae\u888b": 6344,
  "\u7740\u3051": 6345,
  "\u7b4b": 6346,
  "\u7d30": 6347,
  "\u7f6a\u3092\u72af\u3057": 6348,
  "\u7f8e\u3057\u3044": 6349,
  "\u8056\u970a": 6350,
  "\u821f": 6351,
  "\u884c\u308f\u306a\u3051\u308c\u3070\u306a\u3089\u306a\u3044": 6352,
  "\u8b77": 6353,
  "\u8d16\u7f6a": 6354,
  "\u90fd": 6355,
  "\u96c6\u307e\u308a": 6356,
  "\u98df\u7269\u3092": 6357,
  "Blessed": 6358,
  "ment": 6359,
  "\u2581Ahithophel": 6360,
  "\u2581Anathoth": 6361,
  "\u2581Antioch": 6362,
  "\u2581Aram": 6363,
  "\u2581Keilah": 6364,
  "\u2581Nahor": 6365,
  "\u2581abhor": 6366,
  "\u2581apostle": 6367,
  "\u2581dove": 6368,
  "\u2581fame": 6369,
  "\u2581foolishness": 6370,
  "\u2581fornication": 6371,
  "\u2581graves": 6372,
  "\u2581kidneys": 6373,
  "\u2581lament": 6374,
  "\u2581laugh": 6375,
  "\u2581lodged": 6376,
  "\u2581lust": 6377,
  "\u2581ministry": 6378,
  "\u2581poles": 6379,
  "\u2581remaining": 6380,
  "\u2581shouted": 6381,
  "\u2581youngest": 6382,
  "\u2581\u3046\u305f": 6383,
  "\u2581\u305d\u3053\u3067\u308f\u305f\u3057\u306f": 6384,
  "\u2581\u305f\u3061\u307e\u3061": 6385,
  "\u2581\u3084\u3082\u3081": 6386,
  "\u2581\u3088\u304f\u3088\u304f": 6387,
  "\u2581\u30da\u30eb\u30b7\u30e3": 6388,
  "\u2581\u4e3b\u306a\u308b\u795e\u306f": 6389,
  "\u2581\u5225\u308c": 6390,
  "\u2581\u5f93\u9806": 6391,
  "\u2581\u673a": 6392,
  "\u2581\u9707": 6393,
  "\u2581\u9732": 6394,
  "\u2581\u9762": 6395,
  "\u2581\u9a12\u304e": 6396,
  "\u3042\u308a\u307e\u305b\u3093": 6397,
  "\u304a\u304a\u3044": 6398,
  "\u3057\u305f\u304c": 6399,
  "\u3059\u3079\u304d": 6400,
  "\u305d\u306e\u4eba\u3092": 6401,
  "\u306a\u3063\u305f": 6402,
  "\u306b\u5bbf\u55b6\u3057": 6403,
  "\u306b\u5f93\u3046": 6404,
  "\u306e\u3088\u3046\u3067\u3042\u3063\u305f": 6405,
  "\u306e\u5f8c": 6406,
  "\u306e\u66f8": 6407,
  "\u3080\u306a\u3057\u3044": 6408,
  "\u3081\u3050\u307f": 6409,
  "\u3084\u3069": 6410,
  "\u308b\u3053\u3068\u304c\u3067\u304d\u3088\u3046\u304b": 6411,
  "\u308c\u3066": 6412,
  "\u308f\u305f\u3057\u3068\u4e00\u7dd2\u306b": 6413,
  "\u3092\u51fa\u3066": 6414,
  "\u3092\u53d7\u3051\u308b": 6415,
  "\u30a4\u30b9\u30e9\u30a8\u30eb\u306e\u5bb6": 6416,
  "\u30a8\u30d6\u30b9\u3073\u3068": 6417,
  "\u30b4\u30e2\u30e9": 6418,
  "\u30e6": 6419,
  "\u53d6\u3063\u305f": 6420,
  "\u5546\u54c1": 6421,
  "\u5553": 6422,
  "\u59c9\u59b9": 6423,
  "\u5b9d": 6424,
  "\u5fa1\u4f7f\u305f\u3061": 6425,
  "\u6253\u3061": 6426,
  "\u73fe\u308c": 6427,
  "\u7528": 6428,
  "\u76f8\u624b": 6429,
  "\u77e5\u4e8b": 6430,
  "\u7d0d\u3081": 6431,
  "\u8b70": 6432,
  "\u8c37": 6433,
  "\u9589\u3056": 6434,
  "\u96e3": 6435,
  "\u98df\u3044": 6436,
  ");": 6437,
  "Be": 6438,
  "Bring": 6439,
  "O": 6440,
  "iel": 6441,
  "\u2581Ethiopia": 6442,
  "\u2581Gershon": 6443,
  "\u2581Like": 6444,
  "\u2581Michal": 6445,
  "\u2581Nineveh": 6446,
  "\u2581Seven": 6447,
  "\u2581Tirzah": 6448,
  "\u2581boil": 6449,
  "\u2581goings": 6450,
  "\u2581grant": 6451,
  "\u2581granted": 6452,
  "\u2581higher": 6453,
  "\u2581islands": 6454,
  "\u2581nought": 6455,
  "\u2581portions": 6456,
  "\u2581prostitution": 6457,
  "\u2581proverb": 6458,
  "\u2581question": 6459,
  "\u2581sojourn": 6460,
  "\u2581someone": 6461,
  "\u2581sort": 6462,
  "\u2581subdued": 6463,
  "\u2581tithe": 6464,
  "\u2581trembled": 6465,
  "\u2581triumph": 6466,
  "\u2581twice": 6467,
  "\u2581uprightness": 6468,
  "\u2581wouldest": 6469,
  "\u2581\u3042\u3056\u3051\u308a": 6470,
  "\u2581\u304f\u3064": 6471,
  "\u2581\u306f\u304b\u308a": 6472,
  "\u2581\u3072\u306d": 6473,
  "\u2581\u30b5\u30a6\u30ed": 6474,
  "\u2581\u30ca\u30a4\u30eb": 6475,
  "\u2581\u507d\u5584": 6476,
  "\u2581\u51e6\u5973": 6477,
  "\u2581\u6094\u3044": 6478,
  "\u2581\u7070": 6479,
  "\u3053\u3068\u3092\u3057\u306a\u3044": 6480,
  "\u305f\u3061\u3068": 6481,
  "\u306b\u3042\u3063\u305f": 6482,
  "\u306b\u4ee3\u3063\u3066": 6483,
  "\u306b\u81f3\u308a": 6484,
  "\u306e\u3064\u304b\u3055": 6485,
  "\u306e\u3068\u3053\u308d\u3078": 6486,
  "\u306e\u540d\u3092": 6487,
  "\u306f\u3053\u3068\u3054\u3068\u304f": 6488,
  "\u308f\u3056\u308f\u3044\u3060": 6489,
  "\u308f\u305f\u3057\u304c\u3042\u306a\u305f": 6490,
  "\u30ce\u30a2": 6491,
  "\u4e09\u65e5": 6492,
  "\u4e3b\u306b\u3042\u3063\u3066": 6493,
  "\u4f9b": 6494,
  "\u51fa\u305f": 6495,
  "\u53d7\u3051\u308b": 6496,
  "\u53f3\u306e\u624b": 6497,
  "\u5f7c\u5973\u306b\u8a00\u3063\u305f": 6498,
  "\u690d": 6499,
  "\u6c11\u304c": 6500,
  "\u6c11\u8846": 6501,
  "\u7a2e\u985e": 6502,
  "\u7cfb\u56f3": 6503,
  "\u8056\u4f1a": 6504,
  "\u8056\u5f92\u305f\u3061": 6505,
  "\u8db3\u308a": 6506,
  "\u9023": 6507,
  "These": 6508,
  "ish": 6509,
  "three": 6510,
  "\u2581Aroer": 6511,
  "\u2581Hur": 6512,
  "\u2581Kiriath": 6513,
  "\u2581Moabites": 6514,
  "\u2581Stand": 6515,
  "\u2581blasphemed": 6516,
  "\u2581bride": 6517,
  "\u2581carcase": 6518,
  "\u2581excellency": 6519,
  "\u2581flowing": 6520,
  "\u2581girdle": 6521,
  "\u2581got": 6522,
  "\u2581lean": 6523,
  "\u2581locusts": 6524,
  "\u2581masters": 6525,
  "\u2581oak": 6526,
  "\u2581obtain": 6527,
  "\u2581perhaps": 6528,
  "\u2581safety": 6529,
  "\u2581smell": 6530,
  "\u2581troubles": 6531,
  "\u2581wander": 6532,
  "\u2581\u3044\u306a\u3054": 6533,
  "\u2581\u304a\u304f": 6534,
  "\u2581\u307b\u3075\u308a": 6535,
  "\u2581\u307e\u305f\u305d\u306e": 6536,
  "\u2581\u3082\u308d": 6537,
  "\u2581\u4e0d\u6b63": 6538,
  "\u2581\u5439\u304d": 6539,
  "\u2581\u5831\u5fa9": 6540,
  "\u2581\u5b8c\u5168": 6541,
  "\u2581\u5fa1\u4f7f": 6542,
  "\u2581\u60a3\u96e3": 6543,
  "\u3042\u306a\u305f\u304c\u305f\u306b\u8a00\u3046": 6544,
  "\u3053\u308c\u304c\u305f\u3081\u306b": 6545,
  "\u3054\u81ea\u8eab": 6546,
  "\u305d\u308c\u3067": 6547,
  "\u306b\u5165\u308a": 6548,
  "\u306e\u3088\u3046\u306b\u306a\u308b": 6549,
  "\u307e\u3057\u305f\u304c": 6550,
  "\u3082\u3046\u3051": 6551,
  "\u3082\u306e\u3067\u3059": 6552,
  "\u3082\u306e\u3068": 6553,
  "\u3084\u3082\u3081": 6554,
  "\u308b\u3079\u304d": 6555,
  "\u308f\u304c\u5b50\u3088": 6556,
  "\u3092\u3053\u308f\u3057": 6557,
  "\u3092\u52a9\u3051": 6558,
  "\u30ab\u30eb\u30c7\u30e4\u3073\u3068": 6559,
  "\u30d1\u30f3\u3092": 6560,
  "\u30e6\u30c0\u306e\u4eba\u3005": 6561,
  "\u4e09\u3064\u306e": 6562,
  "\u4e0a\u3063\u305f": 6563,
  "\u4fdd\u8a3c": 6564,
  "\u51fa\u3066\u304d\u3066": 6565,
  "\u53bb\u308a": 6566,
  "\u5916\u5957": 6567,
  "\u5947\u8de1": 6568,
  "\u5ac1": 6569,
  "\u5bbf": 6570,
  "\u5e8a": 6571,
  "\u5efa\u7269": 6572,
  "\u5fe0": 6573,
  "\u6240\u3067": 6574,
  "\u6dfb": 6575,
  "\u72af": 6576,
  "\u7684": 6577,
  "\u76bf": 6578,
  "\u7a40\u7269": 6579,
  "\u7acb\u3061\u8fd4": 6580,
  "\u7f6a\u796d": 6581,
  "\u7fd2": 6582,
  "\u820c": 6583,
  "\u88cf": 6584,
  "\u8abf": 6585,
  "\u8cac": 6586,
  "\u8d08\u308a\u7269": 6587,
  "\u9023\u308c\u3066": 6588,
  "\u9032\u307f\u51fa": 6589,
  "\u96a3\u308a\u4eba": 6590,
  "\u9b5a": 6591,
  "Hear": 6592,
  "Therefore": 6593,
  "longed": 6594,
  "\u2581Asahel": 6595,
  "\u2581Hast": 6596,
  "\u2581Lift": 6597,
  "\u2581Rejoice": 6598,
  "\u2581ago": 6599,
  "\u2581darkened": 6600,
  "\u2581devoted": 6601,
  "\u2581dug": 6602,
  "\u2581falls": 6603,
  "\u2581fourscore": 6604,
  "\u2581genealogy": 6605,
  "\u2581leap": 6606,
  "\u2581manna": 6607,
  "\u2581nights": 6608,
  "\u2581passeth": 6609,
  "\u2581priesthood": 6610,
  "\u2581record": 6611,
  "\u2581reprove": 6612,
  "\u2581roll": 6613,
  "\u2581searched": 6614,
  "\u2581subjection": 6615,
  "\u2581try": 6616,
  "\u2581wing": 6617,
  "\u2581\u3044\u304b\u306b": 6618,
  "\u2581\u304a\u305d\u308c": 6619,
  "\u2581\u304b\u308f": 6620,
  "\u2581\u306a\u308f": 6621,
  "\u2581\u307b\u3093\u3068\u3046": 6622,
  "\u2581\u30d8\u30c6\u3073": 6623,
  "\u2581\u53d7\u3051\u53d6": 6624,
  "\u2581\u5927\u9ea6": 6625,
  "\u2581\u5f1f\u5b50\u305f\u3061\u306f": 6626,
  "\u2581\u673d\u3061": 6627,
  "\u2581\u72ac": 6628,
  "\u2581\u7802": 6629,
  "\u2581\u8cb8": 6630,
  "\u2581\u98fe\u308a": 6631,
  "\u3053\u306e\u5973": 6632,
  "\u3055\u305b\u3089\u308c\u305f": 6633,
  "\u3059\u3079\u3066\u306e\u8005": 6634,
  "\u305d\u306e\u3044\u3064\u304f\u3057\u307f\u306f\u3068\u3053\u3057\u3048\u306b\u7d76\u3048": 6635,
  "\u305d\u306e\u4eba\u306b": 6636,
  "\u305d\u306e\u5f8c": 6637,
  "\u3067\u3042\u308c\u3070": 6638,
  "\u3068\u3082\u306b": 6639,
  "\u306b\u81e8\u307f": 6640,
  "\u306e\u65b9\u306b": 6641,
  "\u306e\u65cf\u9577": 6642,
  "\u306e\u6c0f\u65cf": 6643,
  "\u306f\u308f\u305f\u3057": 6644,
  "\u3072\u3056\u307e\u305a": 6645,
  "\u30a8\u30b5\u30a6": 6646,
  "\u30a8\u30b8\u30d7\u30c8\u304b\u3089": 6647,
  "\u4e03\u5e74": 6648,
  "\u4e0b\u3055\u3044": 6649,
  "\u4e16\u306b": 6650,
  "\u4e8b\u7e3e": 6651,
  "\u4eba\u3005\u306e": 6652,
  "\u4f01": 6653,
  "\u4f4f\u307f": 6654,
  "\u5211": 6655,
  "\u529b\u3068": 6656,
  "\u52a0": 6657,
  "\u56fd\u3005\u306e\u6c11": 6658,
  "\u5e45": 6659,
  "\u5f15": 6660,
  "\u60aa\u3092": 6661,
  "\u6368": 6662,
  "\u671b\u3080": 6663,
  "\u679d": 6664,
  "\u6b63\u3057\u3044\u4eba": 6665,
  "\u6bba\u3055\u308c\u305f\u8005": 6666,
  "\u6c34\u304c": 6667,
  "\u76fe": 6668,
  "\u7f6e\u3044\u3066": 6669,
  "\u9670\u5e9c": 6670,
  "\u98df\u3079\u3066\u306f\u306a\u3089\u306a\u3044": 6671,
  "\u9aa8": 6672,
  "\u2581.)": 6673,
  "\u2581Elishama": 6674,
  "\u2581Heman": 6675,
  "\u2581Jehoash": 6676,
  "\u2581Libnah": 6677,
  "\u2581Naaman": 6678,
  "\u2581Omri": 6679,
  "\u2581Sarai": 6680,
  "\u2581accord": 6681,
  "\u2581awesome": 6682,
  "\u2581bake": 6683,
  "\u2581boughs": 6684,
  "\u2581casting": 6685,
  "\u2581exhort": 6686,
  "\u2581forces": 6687,
  "\u2581heifer": 6688,
  "\u2581henceforth": 6689,
  "\u2581herb": 6690,
  "\u2581join": 6691,
  "\u2581kinsman": 6692,
  "\u2581leper": 6693,
  "\u2581melt": 6694,
  "\u2581overflow": 6695,
  "\u2581plow": 6696,
  "\u2581pull": 6697,
  "\u2581purify": 6698,
  "\u2581waist": 6699,
  "\u2581\u3044\u305a\u308c": 6700,
  "\u2581\u3046\u308f\u3055": 6701,
  "\u2581\u3053\u308c\u306f\u5f7c\u3089\u304c": 6702,
  "\u2581\u3055\u307e\u3056\u307e": 6703,
  "\u2581\u305d\u3053\u3067\u30a4\u30a8\u30b9\u306f": 6704,
  "\u2581\u308f\u305f\u3057\u305f\u3061\u304c": 6705,
  "\u2581\u30a2\u30eb": 6706,
  "\u2581\u511f": 6707,
  "\u2581\u5927\u8def": 6708,
  "\u2581\u6355\u865c": 6709,
  "\u2581\u6d77\u3079": 6710,
  "\u2581\u6df5": 6711,
  "\u2581\u88cf\u5207": 6712,
  "\u3044\u305f\u6642": 6713,
  "\u3044\u3064\u304f\u3057\u307f": 6714,
  "\u304a\u304f": 6715,
  "\u304b\u304d": 6716,
  "\u304c\u3082\u3057": 6717,
  "\u3053\u306e\u4eba\u306f": 6718,
  "\u3055\u3057\u4f38\u3079": 6719,
  "\u3057\u3082\u3079\u3089": 6720,
  "\u3060\u3051\u3067": 6721,
  "\u306a\u3057": 6722,
  "\u306b\u3064\u3051": 6723,
  "\u306b\u5f53\u3063\u305f": 6724,
  "\u306e\u304b\u305f\u308f\u3089": 6725,
  "\u306e\u547d": 6726,
  "\u306e\u9996": 6727,
  "\u306f\u3053\u308c\u3092": 6728,
  "\u306f\u308b\u304b": 6729,
  "\u3075\u305f\u305f\u3073": 6730,
  "\u3089\u308c\u305f\u306e\u3067": 6731,
  "\u308a\u306a\u3055\u3044": 6732,
  "\u308f\u305f\u3057\u306e\u5b50": 6733,
  "\u3092\u304a\u304a\u3044": 6734,
  "\u3092\u5fd8\u308c": 6735,
  "\u30a4\u30b9\u30e9\u30a8\u30eb\u306e\u4eba\u3005\u304c": 6736,
  "\u30c7\u30ec\u30b6\u30eb": 6737,
  "\u30d8\u30c6\u3073\u3068": 6738,
  "\u30e2\u30eb\u30c7\u30ab\u30a4": 6739,
  "\u30e8\u30ca\u30bf\u30f3": 6740,
  "\u4e3b\u306b\u3080\u304b\u3063\u3066": 6741,
  "\u4f7f\u8005": 6742,
  "\u5168\u80fd\u8005": 6743,
  "\u51fa\u3057\u3066": 6744,
  "\u533a\u5225": 6745,
  "\u53cb": 6746,
  "\u5426": 6747,
  "\u56db\u3064\u306e": 6748,
  "\u5b9a\u3081\u305f": 6749,
  "\u5c01\u5370": 6750,
  "\u5e03": 6751,
  "\u5e7b": 6752,
  "\u609f": 6753,
  "\u6238": 6754,
  "\u6697\u3084\u307f": 6755,
  "\u6d77\u306e": 6756,
  "\u7236\u3088": 6757,
  "\u751f\u304d\u3066\u3044\u308b": 6758,
  "\u75db\u307f": 6759,
  "\u76e4": 6760,
  "\u76f8\u8ac7": 6761,
  "\u796d\u53f8\u305f\u3061\u306f": 6762,
  "\u7b54\u3048\u3066": 6763,
  "\u8863": 6764,
  "\u8a71": 6765,
  "\u8ee2": 6766,
  "\u8fd1": 6767,
  "\u9003\u3052": 6768,
  "\u91ce\u306e\u7363": 6769,
  "am": 6770,
  "g": 6771,
  "\u2581Hor": 6772,
  "\u2581Horeb": 6773,
  "\u2581Kirjath": 6774,
  "\u2581Send": 6775,
  "\u2581Uzziel": 6776,
  "\u2581accomplish": 6777,
  "\u2581asleep": 6778,
  "\u2581believes": 6779,
  "\u2581companies": 6780,
  "\u2581den": 6781,
  "\u2581envy": 6782,
  "\u2581force": 6783,
  "\u2581lampstand": 6784,
  "\u2581memory": 6785,
  "\u2581myrrh": 6786,
  "\u2581punished": 6787,
  "\u2581row": 6788,
  "\u2581safely": 6789,
  "\u2581stronghold": 6790,
  "\u2581thereby": 6791,
  "\u2581victory": 6792,
  "\u2581wide": 6793,
  "\u2581\u305f\u304f\u3055\u3093": 6794,
  "\u2581\u3072\u3069": 6795,
  "\u2581\u3089\u3044": 6796,
  "\u2581\u30a2\u30e0\u30ce\u30f3": 6797,
  "\u2581\u30bf\u30eb\u30b7\u30b7": 6798,
  "\u2581\u30e8\u30bb\u30d5\u306f": 6799,
  "\u2581\u5f7c\u306f\u305d\u306e": 6800,
  "\u2581\u601d\u616e": 6801,
  "\u2581\u7236\u6bcd": 6802,
  "\u2581\u7acb\u7434": 6803,
  "\u2581\u80f8\u5f53": 6804,
  "\u2581\u91cd\u8377": 6805,
  "\u3042\u306a\u305f\u306e\u5b50": 6806,
  "\u3042\u308a\u307e\u3059": 6807,
  "\u304b\u3089\u51fa\u308b": 6808,
  "\u305d\u306e\u529b": 6809,
  "\u305d\u306e\u8840": 6810,
  "\u3063\u3066\u304f\u3060\u3055\u3044": 6811,
  "\u3064\u304b\u307e\u3048": 6812,
  "\u306b\u4e0e\u3048\u3066": 6813,
  "\u306e\u5883": 6814,
  "\u306e\u9854": 6815,
  "\u306f\u7acb\u3063\u3066": 6816,
  "\u308b\u307e\u3067": 6817,
  "\u3092\u308f\u305f\u3057": 6818,
  "\u3092\u6cbb\u3081\u308b": 6819,
  "\u30a2\u30d6\u30b5\u30ed\u30e0\u306f": 6820,
  "\u30ab\u30ca\u30f3\u306e\u5730": 6821,
  "\u30b7\u30de\u30e4": 6822,
  "\u30cf\u30b7\u30e3\u30d3\u30e4": 6823,
  "\u30d1\u30ed\u306e": 6824,
  "\u30e9\u30e0": 6825,
  "\u4e26": 6826,
  "\u4e3b\u306e\u8a00\u8449\u304c": 6827,
  "\u5144": 6828,
  "\u5411\u3053\u3046\u5074": 6829,
  "\u547d\u3058\u3089\u308c\u305f": 6830,
  "\u559c\u3093\u3060": 6831,
  "\u5b50\u3092": 6832,
  "\u5fa1\u4f7f\u304c": 6833,
  "\u6012\u3063\u3066": 6834,
  "\u6bba\u3055\u308c\u305f": 6835,
  "\u6ec5\u307c\u3055\u308c": 6836,
  "\u7070": 6837,
  "\u7acb": 6838,
  "\u8005\u3067": 6839,
  "\u89e3\u653e": 6840,
  "\u9020\u308a": 6841,
  "\u9023\u308c\u5e30": 6842,
  "\u9a12\u304e": 6843,
  "See": 6844,
  "ation": 6845,
  "\u2581Afterward": 6846,
  "\u2581Am": 6847,
  "\u2581Amariah": 6848,
  "\u2581Athaliah": 6849,
  "\u2581Beloved": 6850,
  "\u2581Caesarea": 6851,
  "\u2581Elah": 6852,
  "\u2581Ephesus": 6853,
  "\u2581arrow": 6854,
  "\u2581cold": 6855,
  "\u2581concubines": 6856,
  "\u2581considered": 6857,
  "\u2581dwellings": 6858,
  "\u2581fasting": 6859,
  "\u2581firstfruits": 6860,
  "\u2581fortress": 6861,
  "\u2581heave": 6862,
  "\u2581husbands": 6863,
  "\u2581mad": 6864,
  "\u2581murmured": 6865,
  "\u2581oblation": 6866,
  "\u2581offspring": 6867,
  "\u2581parables": 6868,
  "\u2581purposed": 6869,
  "\u2581rods": 6870,
  "\u2581shouting": 6871,
  "\u2581sorrows": 6872,
  "\u2581spears": 6873,
  "\u2581tempt": 6874,
  "\u2581tore": 6875,
  "\u2581warm": 6876,
  "\u2581wish": 6877,
  "\u2581zeal": 6878,
  "\u2581\u3042\u308f\u3066": 6879,
  "\u2581\u304b\u307e": 6880,
  "\u2581\u306f\u3048": 6881,
  "\u2581\u30a4\u30a8\u30b9\u306f\u5f7c\u3089\u306b": 6882,
  "\u2581\u30b7\u30bb\u30e9": 6883,
  "\u2581\u30ca\u30aa\u30df": 6884,
  "\u2581\u30de\u30a2\u30ab": 6885,
  "\u2581\u5208\u5165\u308c": 6886,
  "\u2581\u53cd\u9006": 6887,
  "\u2581\u6559\u8a13": 6888,
  "\u2581\u7344\u5c4b": 6889,
  "\u2581\u8001\u4eba": 6890,
  "\u3042\u306a\u305f\u304c\u305f\u306f\u308f\u305f\u3057": 6891,
  "\u3044\u3066\u306f\u306a\u3089\u306a\u3044": 6892,
  "\u3046\u305f\u3048": 6893,
  "\u304a\u3089\u308c\u307e\u3059": 6894,
  "\u3053\u3068\u304c\u3067\u304d\u307e\u3057\u3087\u3046": 6895,
  "\u3053\u306e\u4e16": 6896,
  "\u3057\u307e\u3057\u305f": 6897,
  "\u305f\u3044": 6898,
  "\u3067\u3042\u308b\u304b\u3089": 6899,
  "\u3069\u308c": 6900,
  "\u306a\u308b\u304b\u306a": 6901,
  "\u306e\u3072\u3068\u308a": 6902,
  "\u306e\u9577": 6903,
  "\u306e\u982d": 6904,
  "\u307f\u524d\u306b": 6905,
  "\u3082\u3063\u3066": 6906,
  "\u308b\u3053\u3068\u306f\u3067\u304d\u306a\u3044": 6907,
  "\u3092\u77e5\u3063\u3066\u3044\u308b": 6908,
  "\u30a2\u30d6\u30cd\u30eb": 6909,
  "\u30a4\u30a8\u30b9\u306b": 6910,
  "\u4e03\u5343": 6911,
  "\u4eba\u3082": 6912,
  "\u51fa\u3059": 6913,
  "\u5225": 6914,
  "\u53d7\u3051\u305f": 6915,
  "\u5e74\u3005": 6916,
  "\u5f7c\u306e\u305f\u3081\u306b": 6917,
  "\u5f81\u670d": 6918,
  "\u5f85\u3061\u4f0f\u305b": 6919,
  "\u5fa1\u970a": 6920,
  "\u6016": 6921,
  "\u671f\u9593": 6922,
  "\u68ee": 6923,
  "\u697d\u5668": 6924,
  "\u6a5f\u4f1a": 6925,
  "\u6b32": 6926,
  "\u6b66\u5668": 6927,
  "\u6bba\u3055\u308c\u308b": 6928,
  "\u6ce3\u304d": 6929,
  "\u76f2\u4eba": 6930,
  "\u77e5\u3089\u306a\u3044": 6931,
  "\u7834\u308c": 6932,
  "\u78ba": 6933,
  "\u7acb\u3063\u305f": 6934,
  "\u7acb\u3066\u305f": 6935,
  "\u8a55": 6936,
  "\u8a87\u308b": 6937,
  "\u91cd": 6938,
  "\u98df\u3079\u308b\u3053\u3068\u304c\u3067\u304d\u308b": 6939,
  "\u98e2": 6940,
  "\u9a12": 6941,
  "Arise": 6942,
  "Mos": 6943,
  "hadad": 6944,
  "rs": 6945,
  "unto": 6946,
  "\u2581Abigail": 6947,
  "\u2581Arabah": 6948,
  "\u2581Consider": 6949,
  "\u2581Ham": 6950,
  "\u2581Jephunneh": 6951,
  "\u2581approach": 6952,
  "\u2581bald": 6953,
  "\u2581catch": 6954,
  "\u2581confirm": 6955,
  "\u2581earthquake": 6956,
  "\u2581evildoers": 6957,
  "\u2581foreign": 6958,
  "\u2581kindle": 6959,
  "\u2581looketh": 6960,
  "\u2581offended": 6961,
  "\u2581pardon": 6962,
  "\u2581sounded": 6963,
  "\u2581stature": 6964,
  "\u2581stumbling": 6965,
  "\u2581sum": 6966,
  "\u2581tumult": 6967,
  "\u2581vari": 6968,
  "\u2581vowed": 6969,
  "\u2581winepress": 6970,
  "\u2581withal": 6971,
  "\u2581wool": 6972,
  "\u2581\u3064\u304b": 6973,
  "\u2581\u3075": 6974,
  "\u2581\u308f\u305f\u3057\u306f\u3042\u306a\u305f": 6975,
  "\u2581\u30a8\u30e9\u30e0": 6976,
  "\u2581\u30a8\u30ea\u30a2": 6977,
  "\u2581\u30bd\u30ed\u30e2\u30f3\u306f": 6978,
  "\u2581\u30c9": 6979,
  "\u2581\u4ef0": 6980,
  "\u2581\u5915\u66ae": 6981,
  "\u2581\u5e03": 6982,
  "\u2581\u6106\u796d": 6983,
  "\u2581\u6355\u56da": 6984,
  "\u2581\u6483\u3061\u7834": 6985,
  "\u2581\u713c\u3051": 6986,
  "\u2581\u8077": 6987,
  "\u2581\u8ecd\u968a": 6988,
  "\u3042\u308f\u305b": 6989,
  "\u3048\u308b": 6990,
  "\u304c\u3042\u3063\u3066\u3082": 6991,
  "\u304c\u4ee3\u3063\u3066\u738b\u3068\u306a\u3063\u305f": 6992,
  "\u3053\u3068\u304c\u3067\u304d\u305a": 6993,
  "\u305d\u306e\u5730\u3092": 6994,
  "\u305f\u308a": 6995,
  "\u3068\u3070\u308a": 6996,
  "\u306e\u307c\u3063\u3066": 6997,
  "\u306e\u4e2d": 6998,
  "\u306e\u56fd": 6999,
  "\u306e\u970a": 7000,
  "\u306f\u3053\u308c\u3092\u805e\u3044\u3066": 7001,
  "\u306f\u3059\u3067\u306b": 7002,
  "\u306f\u306a\u304f": 7003,
  "\u3072\u3058\u3087\u3046\u306b": 7004,
  "\u308b\u304c": 7005,
  "\u3092\u6c5a\u3057": 7006,
  "\u30a4\u30b9\u30e9\u30a8\u30eb\u3073\u3068": 7007,
  "\u30cf\u30e0": 7008,
  "\u30d8": 7009,
  "\u30e8\u30bb\u30d5\u306f": 7010,
  "\u4e16\u754c": 7011,
  "\u4eba\u3067\u3042\u3063\u305f": 7012,
  "\u4f4f\u3093\u3060": 7013,
  "\u4f9b\u3048\u7269": 7014,
  "\u51fa\u3057\u305f": 7015,
  "\u591a\u3044": 7016,
  "\u5e30\u308a": 7017,
  "\u5efa\u3066": 7018,
  "\u6210\u9577": 7019,
  "\u63fa\u308a\u52d5\u304b": 7020,
  "\u6551\u3044\u51fa\u3057": 7021,
  "\u6a21": 7022,
  "\u6b63\u7fa9": 7023,
  "\u6cc9": 7024,
  "\u6ec5\u307c\u3057": 7025,
  "\u71d4\u796d\u306e": 7026,
  "\u738b\u306e\u524d\u306b": 7027,
  "\u753a\u3092": 7028,
  "\u7acb\u3061\u3042\u304c\u308a": 7029,
  "\u7cbe": 7030,
  "\u88f8": 7031,
  "\u898b\u3066\u3044\u308b": 7032,
  "\u8a00\u8449\u306f": 7033,
  "\u8fbc": 7034,
  "\u968e": 7035,
  "\u96c6\u4f1a": 7036,
  "Have": 7037,
  "Whoever": 7038,
  "\u2581Ahitub": 7039,
  "\u2581Beersheba": 7040,
  "\u2581Great": 7041,
  "\u2581Has": 7042,
  "\u2581Hittites": 7043,
  "\u2581Should": 7044,
  "\u2581Shushan": 7045,
  "\u2581Unti": 7046,
  "\u2581bases": 7047,
  "\u2581belong": 7048,
  "\u2581cymbals": 7049,
  "\u2581distressed": 7050,
  "\u2581dog": 7051,
  "\u2581duke": 7052,
  "\u2581err": 7053,
  "\u2581fellowship": 7054,
  "\u2581fetched": 7055,
  "\u2581floods": 7056,
  "\u2581hangings": 7057,
  "\u2581heir": 7058,
  "\u2581hunt": 7059,
  "\u2581ignorant": 7060,
  "\u2581spy": 7061,
  "\u2581streams": 7062,
  "\u2581stubble": 7063,
  "\u2581trespassed": 7064,
  "\u2581winter": 7065,
  "\u2581\u3044\u3044\u3048": 7066,
  "\u2581\u304a\u306e": 7067,
  "\u2581\u304f\u3089": 7068,
  "\u2581\u3053\u3061\u3089": 7069,
  "\u2581\u3053\u306e\u6642": 7070,
  "\u2581\u305d\u3057\u3066\u5f7c\u306f": 7071,
  "\u2581\u305f\u305a\u306d": 7072,
  "\u2581\u3064\u3064": 7073,
  "\u2581\u3072\u3068\u308a\u3073\u3068\u308a": 7074,
  "\u2581\u30a8\u30b7\u30e5\u30a2": 7075,
  "\u2581\u30b1\u30eb\u30d6": 7076,
  "\u2581\u30d0\u30a2\u30b7\u30e3": 7077,
  "\u2581\u5225": 7078,
  "\u2581\u52a9\u3051\u51fa": 7079,
  "\u2581\u5929\u5730": 7080,
  "\u2581\u5965": 7081,
  "\u2581\u6557": 7082,
  "\u2581\u6c60": 7083,
  "\u2581\u96cc\u725b": 7084,
  "\u3042\u306a\u305f\u306e\u5fc3": 7085,
  "\u3044\u3063\u3071\u3044": 7086,
  "\u304b\u3092": 7087,
  "\u304c\u6765\u308b": 7088,
  "\u3053\u3055\u305b": 7089,
  "\u3053\u306e\u5730\u306b": 7090,
  "\u305d\u306e\u524d\u306b": 7091,
  "\u306a\u304b\u3063\u305f\u304b\u3089\u3067\u3042\u308b": 7092,
  "\u306b\u4e0e\u3048\u3089\u308c\u305f": 7093,
  "\u306b\u7740\u3044\u305f": 7094,
  "\u306b\u884c\u3063\u3066": 7095,
  "\u306e\u4e2d\u306e": 7096,
  "\u3092\u77e5\u308a": 7097,
  "\u30bf\u30f3": 7098,
  "\u30c0\u30cb\u30a8\u30eb": 7099,
  "\u30c2": 7100,
  "\u4e00\u6b73\u306e\u96c4\u306e\u5c0f\u7f8a": 7101,
  "\u4f4f": 7102,
  "\u50b7\u3064\u3051": 7103,
  "\u521d\u3081\u304b\u3089": 7104,
  "\u540c\u3058\u3088\u3046\u306b": 7105,
  "\u5ba4": 7106,
  "\u5bb6\u755c\u3068": 7107,
  "\u5f35\u308a": 7108,
  "\u60aa\u3057\u304d": 7109,
  "\u60aa\u3057\u304d\u8005\u306e": 7110,
  "\u676f": 7111,
  "\u76f4": 7112,
  "\u7acb\u3063\u3066\u3044\u308b": 7113,
  "\u7d44": 7114,
  "\u7e26": 7115,
  "\u805e\u304d\u306a\u3055\u3044": 7116,
  "\u81ea\u7531": 7117,
  "\u8584": 7118,
  "\u8a89": 7119,
  "\u8a9e\u3063\u3066": 7120,
  "\u8cdc": 7121,
  "\u91ce\u306e": 7122,
  "\u9664\u304d\u53bb": 7123,
  "To": 7124,
  "ful": 7125,
  "sh": 7126,
  "\u2581Amram": 7127,
  "\u2581Eliashib": 7128,
  "\u2581Here": 7129,
  "\u2581Reubenites": 7130,
  "\u2581beard": 7131,
  "\u2581commend": 7132,
  "\u2581covers": 7133,
  "\u2581fastened": 7134,
  "\u2581firm": 7135,
  "\u2581flatter": 7136,
  "\u2581fulfill": 7137,
  "\u2581hates": 7138,
  "\u2581hence": 7139,
  "\u2581lend": 7140,
  "\u2581pervert": 7141,
  "\u2581placed": 7142,
  "\u2581sending": 7143,
  "\u2581siege": 7144,
  "\u2581slow": 7145,
  "\u2581towers": 7146,
  "\u2581vile": 7147,
  "\u2581watchman": 7148,
  "\u2581window": 7149,
  "\u2581wounds": 7150,
  "\u2581\u3044\u307e\u3057\u3081": 7151,
  "\u2581\u304b\u3054": 7152,
  "\u2581\u3069": 7153,
  "\u2581\u30a2\u30d3\u30e4": 7154,
  "\u2581\u30d0": 7155,
  "\u2581\u30e8\u30bf\u30e0": 7156,
  "\u2581\u30e8\u30cf\u30ca\u30f3": 7157,
  "\u2581\u5546\u4eba": 7158,
  "\u2581\u5dde": 7159,
  "\u2581\u7b54": 7160,
  "\u2581\u826f\u5fc3": 7161,
  "\u2581\u884c\u3051": 7162,
  "\u2581\u8d64": 7163,
  "\u2581\u9014\u4e2d": 7164,
  "\u2581\u9a5a\u304d": 7165,
  "\u3044\u307e\u3057\u305f": 7166,
  "\u3046\u8005": 7167,
  "\u304a\u3044\u3066": 7168,
  "\u304c\u3053\u308c\u3092": 7169,
  "\u3053\u3068\u3068": 7170,
  "\u3053\u306e\u5bae": 7171,
  "\u3053\u308c\u3089\u306e\u4e8b\u3092": 7172,
  "\u3055\u308c\u306a\u3044": 7173,
  "\u3057\u3066\u8a00\u3063\u305f": 7174,
  "\u3057\u3081": 7175,
  "\u305d\u308c\u3092\u98df\u3079": 7176,
  "\u305f\u304b": 7177,
  "\u3060\u308c\u306b\u3082": 7178,
  "\u3063\u305f\u304c": 7179,
  "\u3066\u3044\u305f\u306e\u3067": 7180,
  "\u3068\u601d\u3046": 7181,
  "\u306b\u4f1a\u3044": 7182,
  "\u306d\u3070\u306a\u3089\u306a\u3044": 7183,
  "\u306e\u76ee\u306e\u524d\u3067": 7184,
  "\u306f\u305a": 7185,
  "\u3075\u3055": 7186,
  "\u3089\u305b\u305f": 7187,
  "\u308b\u8005\u304c": 7188,
  "\u3092\u3064\u304b\u3055\u3069": 7189,
  "\u3092\u6c42\u3081": 7190,
  "\u30a2\u30cf\u30d6": 7191,
  "\u30a4\u30b9\u30e9\u30a8\u30eb\u306e\u8056\u8005": 7192,
  "\u30c0\u30d3\u30c7\u304c": 7193,
  "\u30e9\u30c3\u30d1": 7194,
  "\u4fe1\u3058\u305f": 7195,
  "\u521d\u7a42": 7196,
  "\u53d6\u308a\u4e0a\u3052": 7197,
  "\u548c\u89e3": 7198,
  "\u5a01\u5149": 7199,
  "\u5b9d\u7269": 7200,
  "\u5c71\u5730": 7201,
  "\u5f1f\u5b50": 7202,
  "\u6050\u308b\u3079\u304d": 7203,
  "\u683c": 7204,
  "\u6b21\u306f": 7205,
  "\u7269\u306f": 7206,
  "\u738b\u56fd": 7207,
  "\u751f\u547d": 7208,
  "\u771f\u5fc3": 7209,
  "\u77e5\u3089\u306a\u304b\u3063\u305f": 7210,
  "\u884c\u3051": 7211,
  "\u96c7\u4eba": 7212,
  "\u9999\u67cf": 7213,
  "\u9ad8\u3076\u308a": 7214,
  "THE": 7215,
  "adan": 7216,
  "uching": 7217,
  "\u2581Ah": 7218,
  "\u2581Ammonites": 7219,
  "\u2581Geba": 7220,
  "\u2581Mattaniah": 7221,
  "\u2581Midianites": 7222,
  "\u2581Mizpeh": 7223,
  "\u2581N": 7224,
  "\u2581Nebuchadrezzar": 7225,
  "\u2581Nebuzar": 7226,
  "\u2581Ner": 7227,
  "\u2581Save": 7228,
  "\u2581Scripture": 7229,
  "\u2581Shelah": 7230,
  "\u2581ambush": 7231,
  "\u2581beam": 7232,
  "\u2581bows": 7233,
  "\u2581calls": 7234,
  "\u2581dragon": 7235,
  "\u2581forehead": 7236,
  "\u2581fowl": 7237,
  "\u2581girded": 7238,
  "\u2581godliness": 7239,
  "\u2581journeyed": 7240,
  "\u2581maidens": 7241,
  "\u2581possible": 7242,
  "\u2581pots": 7243,
  "\u2581scripture": 7244,
  "\u2581seems": 7245,
  "\u2581star": 7246,
  "\u2581string": 7247,
  "\u2581t": 7248,
  "\u2581tax": 7249,
  "\u2581teachers": 7250,
  "\u2581temptation": 7251,
  "\u2581wrapp": 7252,
  "\u2581\u308f\u304d": 7253,
  "\u2581\u30a2\u30c9\u30cb\u30e4": 7254,
  "\u2581\u30aa\u30d9\u30c7": 7255,
  "\u2581\u30d8": 7256,
  "\u2581\u4e07\u56fd": 7257,
  "\u2581\u516c\u7fa9": 7258,
  "\u2581\u5305": 7259,
  "\u2581\u5929\u56fd": 7260,
  "\u2581\u5f53\u3066": 7261,
  "\u2581\u639b\u3051": 7262,
  "\u2581\u7267\u5834": 7263,
  "\u2581\u751f\u304d\u6b8b": 7264,
  "\u2581\u7834\u58ca": 7265,
  "\u2581\u7bb1\u821f": 7266,
  "\u2581\u7cf8": 7267,
  "\u2581\u7d76\u3084": 7268,
  "\u3042\u3059": 7269,
  "\u304d\u3082\u306e": 7270,
  "\u3053\u3068\u306b\u306a\u308b": 7271,
  "\u3053\u308c\u3089\u306e\u8a00\u8449\u3092": 7272,
  "\u3056\u304f\u308d": 7273,
  "\u3059\u308b\u3088\u3046\u306b": 7274,
  "\u3068\u3044\u3046\u3053\u3068": 7275,
  "\u3068\u306e\u9593\u306b": 7276,
  "\u306b\u306f\u3044\u308a": 7277,
  "\u306f\u306a\u306f\u3060\u3057": 7278,
  "\u306f\u518d\u3073": 7279,
  "\u3072\u3068\u308a\u306e\u4eba\u304c": 7280,
  "\u307f\u3093\u306a": 7281,
  "\u308f\u304c\u541b": 7282,
  "\u308f\u305f\u3057\u306f\u3053\u306e": 7283,
  "\u3092\u3055\u3055\u3052\u306a\u3051\u308c\u3070\u306a\u3089\u306a\u3044": 7284,
  "\u3092\u5b88\u3089": 7285,
  "\u30a2\u30cf\u30ba": 7286,
  "\u30a8\u30ed\u30b9": 7287,
  "\u30d9\u30c4\u30ec\u30d8\u30e0": 7288,
  "\u4e3b\u306e\u8a00\u8449": 7289,
  "\u4ea4\u308f\u308a": 7290,
  "\u5012\u308c\u305f": 7291,
  "\u5229\u76ca": 7292,
  "\u5272\u793c": 7293,
  "\u59a8\u3052": 7294,
  "\u5e0c": 7295,
  "\u5e2d": 7296,
  "\u5f13": 7297,
  "\u5f7c\u3089\u306e\u4e0a\u306b": 7298,
  "\u60aa\u3092\u884c\u3046\u8005": 7299,
  "\u611a\u304b\u306a": 7300,
  "\u65e5\u3005": 7301,
  "\u670d": 7302,
  "\u6751\u91cc": 7303,
  "\u6c11\u306f\u7686": 7304,
  "\u6cb9\u3092": 7305,
  "\u6e05\u3044": 7306,
  "\u6e80\u3061\u3042\u3075\u308c": 7307,
  "\u6e80\u8db3": 7308,
  "\u7169": 7309,
  "\u7236\u304c": 7310,
  "\u7b2c\u4e8c\u306e": 7311,
  "\u7fa4\u8846\u304c": 7312,
  "\u8a13\u7df4": 7313,
  "\u8b90": 7314,
  "\u8cea": 7315,
  "\u9020": 7316,
  "\u9078\u3070\u308c\u305f": 7317,
  "\u9650": 7318,
  "Tel": 7319,
  "Yes": 7320,
  "adventure": 7321,
  "scent": 7322,
  "to": 7323,
  "\u2581Capernaum": 7324,
  "\u2581Eliphaz": 7325,
  "\u2581Greeks": 7326,
  "\u2581Hanan": 7327,
  "\u2581None": 7328,
  "\u2581Ziklag": 7329,
  "\u2581bond": 7330,
  "\u2581cart": 7331,
  "\u2581chaff": 7332,
  "\u2581convocation": 7333,
  "\u2581courage": 7334,
  "\u2581disobedient": 7335,
  "\u2581falling": 7336,
  "\u2581fetch": 7337,
  "\u2581footstool": 7338,
  "\u2581forbear": 7339,
  "\u2581godly": 7340,
  "\u2581hateth": 7341,
  "\u2581hurried": 7342,
  "\u2581immorality": 7343,
  "\u2581lewdness": 7344,
  "\u2581maintain": 7345,
  "\u2581necks": 7346,
  "\u2581nourish": 7347,
  "\u2581overlay": 7348,
  "\u2581overthrown": 7349,
  "\u2581seventeen": 7350,
  "\u2581steadfast": 7351,
  "\u2581straw": 7352,
  "\u2581wailing": 7353,
  "\u2581wars": 7354,
  "\u2581weeks": 7355,
  "\u2581whoredoms": 7356,
  "\u2581worm": 7357,
  "\u2581\u304b\u3057\u3053": 7358,
  "\u2581\u307e\u3057\u3066": 7359,
  "\u2581\u30cc\u30f3": 7360,
  "\u2581\u4e07\u8ecd\u306e\u4e3b\u306f": 7361,
  "\u2581\u4eba\u3005\u304c": 7362,
  "\u2581\u5024": 7363,
  "\u2581\u5206\u308c": 7364,
  "\u2581\u5351\u3057": 7365,
  "\u2581\u56de": 7366,
  "\u2581\u5c04": 7367,
  "\u2581\u5f7c\u3089\u306f\u305d\u306e": 7368,
  "\u2581\u8466": 7369,
  "\u3044\u3064": 7370,
  "\u304b\u306a\u3044": 7371,
  "\u3055\u3093\u3073": 7372,
  "\u3057\u3048\u305f\u3052": 7373,
  "\u305d\u306e\u4e0a": 7374,
  "\u305d\u306e\u679d": 7375,
  "\u305f\u3073\u305f\u3073": 7376,
  "\u3064\u304b\u308f\u3057\u305f": 7377,
  "\u3064\u304b\u308f\u3059": 7378,
  "\u3066\u304a\u3089\u308c\u308b": 7379,
  "\u306b\u3057\u305f\u304c\u3044": 7380,
  "\u306b\u53ca\u3093\u3060": 7381,
  "\u306b\u884c\u3063\u305f": 7382,
  "\u306e\u5f8c\u306b": 7383,
  "\u306e\u6b7b\u4f53": 7384,
  "\u306f\u304b\u308a\u3054\u3068": 7385,
  "\u306f\u81ea\u5206\u306e": 7386,
  "\u307f\u3053\u3053\u308d": 7387,
  "\u3082\u3057\u3042\u306a\u305f\u304c": 7388,
  "\u308b\u6240": 7389,
  "\u3092\u6483\u3063\u3066": 7390,
  "\u3092\u6c5a\u3057\u305f": 7391,
  "\u30a4\u30b9\u30e9\u30a8\u30eb\u306e\u4eba\u3005\u306e": 7392,
  "\u30cc": 7393,
  "\u30d9\u30c6\u30eb": 7394,
  "\u4e3b\u306f\u308f\u305f\u3057\u306b\u8a00\u308f\u308c\u305f": 7395,
  "\u4e45": 7396,
  "\u4f7f\u5f92": 7397,
  "\u507d\u308a\u3092": 7398,
  "\u5206\u3051": 7399,
  "\u541b": 7400,
  "\u591a\u304f\u306e\u4eba": 7401,
  "\u5b88\u3063\u3066": 7402,
  "\u6050\u308c\u308b\u3053\u3068\u306f\u306a\u3044": 7403,
  "\u6559\u4f1a": 7404,
  "\u65c5": 7405,
  "\u697d": 7406,
  "\u6b8b\u308a\u306e": 7407,
  "\u77e5\u6075\u306f": 7408,
  "\u795e\u3067\u3042\u308b": 7409,
  "\u7fa9\u3068": 7410,
  "\u8005\u306b\u306f": 7411,
  "\u826f\u3057": 7412,
  "\u8ab2": 7413,
  "\u8c4a\u304b\u306a": 7414,
  "\u8fd1\u304f": 7415,
  "\u9577\u8001": 7416,
  "oncerning": 7417,
  "\u2581Ahimelech": 7418,
  "\u2581Ask": 7419,
  "\u2581Gather": 7420,
  "\u2581Hearken": 7421,
  "\u2581Michael": 7422,
  "\u2581Miriam": 7423,
  "\u2581Savior": 7424,
  "\u2581Ziba": 7425,
  "\u2581baskets": 7426,
  "\u2581calleth": 7427,
  "\u2581descended": 7428,
  "\u2581entry": 7429,
  "\u2581fellows": 7430,
  "\u2581freely": 7431,
  "\u2581mute": 7432,
  "\u2581nest": 7433,
  "\u2581pro": 7434,
  "\u2581repair": 7435,
  "\u2581reported": 7436,
  "\u2581speedily": 7437,
  "\u2581standeth": 7438,
  "\u2581stripped": 7439,
  "\u2581tarried": 7440,
  "\u2581tombs": 7441,
  "\u2581turneth": 7442,
  "\u2581uncircumcision": 7443,
  "\u2581uncle": 7444,
  "\u2581\u3044\u308d\u3044\u308d": 7445,
  "\u2581\u3057\u304b\u3057\u5f7c\u3089\u306f": 7446,
  "\u2581\u307f\u3064\u304e": 7447,
  "\u2581\u308f\u305f\u3057\u306f\u3042\u306a\u305f\u3092": 7448,
  "\u2581\u308f\u305f\u3057\u306f\u5f7c": 7449,
  "\u2581\u30a8\u30db\u30c7": 7450,
  "\u2581\u30ab\u30c7\u30b7": 7451,
  "\u2581\u30ab\u30eb\u30e1\u30eb": 7452,
  "\u2581\u4fe1\u5fc3": 7453,
  "\u2581\u5175\u5352": 7454,
  "\u2581\u6094\u3044\u6539\u3081": 7455,
  "\u2581\u6b63\u6708": 7456,
  "\u2581\u738b\u30cd\u30d6\u30ab": 7457,
  "\u2581\u7acb\u3061": 7458,
  "\u2581\u80cc": 7459,
  "\u2581\u82b1\u5a7f": 7460,
  "\u2581\u8a3c\u8a00": 7461,
  "\u2581\u8ffd\u3044": 7462,
  "\u2581\u9752\u7cf8": 7463,
  "\u2581\u9f3b": 7464,
  "\u3042\u306a\u305f\u306e\u5bb6": 7465,
  "\u304a\u306e\u304c": 7466,
  "\u3053\u3068\u304c\u3042\u308b": 7467,
  "\u305d\u3046\u3059\u308c\u3070": 7468,
  "\u305d\u3057\u308a": 7469,
  "\u305d\u306e\u6c0f\u65cf\u306b\u3088": 7470,
  "\u3064\u304b\u308f\u3055\u308c\u305f": 7471,
  "\u3068\u601d\u3063\u3066": 7472,
  "\u306a\u3044\u8005": 7473,
  "\u306b\u4ed5\u3048\u308b": 7474,
  "\u306b\u5411\u304b\u3044": 7475,
  "\u306b\u89e6\u308c": 7476,
  "\u306e\u304c\u308c\u3066": 7477,
  "\u306e\u4e16\u306b": 7478,
  "\u306e\u738b\u306e\u6b74\u4ee3\u5fd7\u306e\u66f8\u306b\u3057\u308b\u3055\u308c\u3066\u3044\u308b": 7479,
  "\u3073\u3093": 7480,
  "\u3076\u3093\u3069\u308a\u7269": 7481,
  "\u3079\u304d\u3067\u3042\u308b": 7482,
  "\u3082\u306e\u304c": 7483,
  "\u308f\u305f\u3057\u306f\u3042\u306a\u305f\u306e": 7484,
  "\u3092\u611b\u3059\u308b": 7485,
  "\u3092\u6bba\u3059": 7486,
  "\u3092\u8efd\u3093\u3058": 7487,
  "\u30a8\u30d2\u30a6\u306f": 7488,
  "\u30ad\u30ea\u30a2\u30c6": 7489,
  "\u30df\u30ea\u30a2\u30e0": 7490,
  "\u30e8": 7491,
  "\u4eba\u306b\u306f": 7492,
  "\u4ee5\u6765": 7493,
  "\u515a": 7494,
  "\u5973\u3092": 7495,
  "\u5b9d\u77f3": 7496,
  "\u5e30\u3063\u3066\u304d\u3066": 7497,
  "\u5ea7\u3057\u3066": 7498,
[...]
